{"</s>": 0, "<unk>": 1, ".": 2, "\u2581the": 3, ",": 4, "\u2581of": 5, "\u2581and": 6, "\u060c": 7, "\u2581to": 8, "\u2581\u0641\u064a": 9, "\u2581in": 10, "\u2581\u0645\u0646": 11, "\u2581(": 12, "\u2581-": 13, "\u2581a": 14, "'": 15, "\u2581\u0623\u0646": 16, "s": 17, "\u2581\u0639\u0644\u0649": 18, ")": 19, "\u2581for": 20, "-": 21, "\u2581that": 22, "\u2581": 23, "\u2581on": 24, "\u2581I": 25, ";": 26, "\u064b": 27, "\u2581\u0625\u0644\u0649": 28, "/": 29, "\u0627": 30, "\u2581The": 31, "\u2581you": 32, "\u2581\u0648": 33, "?": 34, "\u2581is": 35, "\u0647": 36, "\u2581with": 37, "\u2581be": 38, "\u2581by": 39, "\u0629": 40, "\u064a": 41, "\u2581&": 42, ":": 43, "\u2581\u0627\u0644\u062a\u064a": 44, "\u2581as": 45, "\u2581\u0639\u0646": 46, "\u2581\u0644\u0627": 47, "\u2581it": 48, "\u064f": 49, "\u062a": 50, "\u2581\"": 51, "\u0651": 52, "\u2581was": 53, "\u0647\u0627": 54, "\u061f": 55, "\u2581\u0647\u0630\u0627": 56, "\u0643": 57, "\u2581\u0627\u0644\u0645\u062a\u062d\u062f\u0629": 58, "\u2581\u0628": 59, "\u2581are": 60, "\u2581\u0623": 61, "\u2581\u0645\u0627": 62, "\u2581\u0623\u0648": 63, "\u064e": 64, "!": 65, "\u2581at": 66, "\u2581its": 67, "\u2581\u0630\u0644\u0643": 68, "t": 69, "\u2581\u0644": 70, "\u2581have": 71, "a": 72, "\u2581not": 73, "\u2581this": 74, "\u2581United": 75, "\u2581from": 76, "\u2581\u060c": 77, "\u0640": 78, "\u2581or": 79, "\u064a\u0646": 80, "\u2581\u0627\u0644\u0623\u0645\u0645": 81, "\u2581\u0645\u0639": 82, "\u2581\u0647\u0630\u0647": 83, "\u061b": 84, "\u2581A": 85, "\u2581Nations": 86, "\u0645": 87, "\u0646": 88, "\u2581all": 89, "\u2581an": 90, "\u0628": 91, "\u2581.": 92, "\u0627\u062a": 93, "\u0650": 94, "\u2581which": 95, "\u2581their": 96, "\u2581\u0627\u0644\u0630\u064a": 97, "m": 98, "\u2581\u0627\u0644\u0644\u062c\u0646\u0629": 99, "\u2581\u0627\u0644": 100, "\u2581has": 101, "\u2581\u062a": 102, "\u2581You": 103, "\u2581In": 104, "\u2581Committee": 105, "\u2581It": 106, "\u2581me": 107, "ot": 108, "\u2581\u064a": 109, "qu": 110, "\u2581\u0645": 111, "\u2581been": 112, "ing": 113, "\u0646\u0627": 114, "\u2581will": 115, "\u2581\u061f": 116, "\u2581\u0644\u0645": 117, "\u2581had": 118, "pos": 119, "\u062f": 120, "\u2581States": 121, "\u2581we": 122, "\u2581\u063a\u064a\u0631": 123, "\u2581\u0628\u064a\u0646": 124, "\u0644": 125, "\u2581\u0648\u0641\u064a": 126, "\u2581were": 127, "n": 128, "\u0648\u0646": 129, "\u2581international": 130, "\u2581\u0627\u0644\u0639\u0627\u0645\u0629": 131, "\u2581\u0628\u0634\u0623\u0646": 132, "\u0623": 133, "\u0649": 134, "\u2581would": 135, "\u2581\u0623\u064a": 136, "\u2581also": 137, "\u2581should": 138, "\u2581s": 139, "\u2581other": 140, "\u25811": 141, "re": 142, "quot": 143, "\u0631": 144, "y": 145, "d": 146, "\u2581can": 147, "\"": 148, "\u2581\u0643\u0644": 149, "\u2581\u0627\u0644\u0639\u0627\u0645": 150, "\u2581\u0643\u0627\u0646": 151, ").": 152, "\u2581Council": 153, "\u2581my": 154, "\u2581do": 155, "\u2581rights": 156, "\u2581he": 157, "\u0648\u0627": 158, "\u2581He": 159, "\u064a\u0629": 160, "\u2581your": 161, "\u2581out": 162, "\u2581development": 163, "\u2581\u0647\u0648": 164, "\u2581countries": 165, "\u2581\u0639\u0627\u0645": 166, "\u0647\u0645": 167, "\u2581\u0623\u064a\u0636\u0627": 168, "\u2581\u0625\u0646": 169, "\u2581\u0627\u0644\u062f\u0648\u0644\u064a\u0629": 170, "\u2581\u0627\u0644\u0625\u0646\u0633\u0627\u0646": 171, "\u2581report": 172, "\u2581\u0627\u0644\u062f\u0648\u0644": 173, "\u2581We": 174, "\u2581know": 175, "\u2581\u0623\u062c\u0644": 176, "ed": 177, "A": 178, "\u2581\u0627\u0644\u0639\u0645\u0644": 179, "\u2581\u0627\u0644\u062f\u0648\u0644\u064a": 180, "\u2581they": 181, "e": 182, "\u2581one": 183, "\u2581right": 184, "\u2581\u062c\u0645\u064a\u0639": 185, "\u2581\u0642\u062f": 186, "\u2581S": 187, "\u062c": 188, "\u2581under": 189, "\u0640\u0640": 190, "\u2581go": 191, "\u2581\u0647\u0644": 192, "\u2581work": 193, "\u2581human": 194, "\u2581resolution": 195, "\u2581\u0628\u0645\u0627": 196, "\u2581No": 197, "\u2581what": 198, "\u2581there": 199, "\u2581such": 200, "\u2581about": 201, "\u2581What": 202, "\u2581General": 203, "\u2581including": 204, "\u2581his": 205, "\u2581women": 206, "\u0627\u0646": 207, "\u0669": 208, "\u2581up": 209, "\u2581\u0627\u0644\u0623\u0648\u0644": 210, "\u2581\u062d\u0642\u0648\u0642": 211, "\u2581Assembly": 212, "\u2581but": 213, "\u2581\u064a\u0627": 214, "\u2581no": 215, "\u2581\u0627\u0644\u0628\u0644\u062f\u0627\u0646": 216, "\u2581so": 217, "\u2581\u0646": 218, "\u25813": 219, "\u2581\u0647\u064a": 220, "\u2581\u0644\u0642\u062f": 221, "\u0642": 222, "\u2581\u0623\u0646\u0647": 223, "\u2581\u0648\u0627\u0644": 224, "\u2581information": 225, "\u25812": 226, "\u2581\u0644\u0644": 227, "\u2581\u0628\u0627\u0644": 228, "\u2581more": 229, "\u2581support": 230, "\u2581national": 231, "\u2581like": 232, "\u0652": 233, "\u0639": 234, "\u0627\u0644": 235, "General": 236, "\u2581just": 237, "\u2581State": 238, "\u2581session": 239, "\u2581\u0628\u0623\u0646": 240, "\u2581\u0643\u0645\u0627": 241, "\u2581who": 242, "\u2581made": 243, "\u2581into": 244, "\u2581don": 245, "\u2581\u062e\u0644\u0627\u0644": 246, "\u2581And": 247, "\u2581\u0627": 248, "\u2581\u0648\u0642\u062f": 249, "\u2581Secretary": 250, "C": 251, "\u0648": 252, "\u2581\u0627\u0644\u062c\u0645\u0639\u064a\u0629": 253, "\u2581Convention": 254, "\u2581those": 255, "\u0646\u064a": 256, "\u2581,": 257, "\u2581\u0641\u064a\u0645\u0627": 258, "\u0633": 259, "c": 260, "\u2581any": 261, "),": 262, "\u2581\u0628\u0639\u062f": 263, "\u2581need": 264, "\u2581\u064a\u0645\u0643\u0646": 265, "\u2581\u0627\u0646": 266, "\u2581International": 267, "\u2581implementation": 268, "\u2581did": 269, "b": 270, "\u2581\u0628\u0647\u0627": 271, "\u2581time": 272, "\u2581\u0641": 273, "\u2581Mr": 274, "\u2581them": 275, "\u2581Government": 276, "\u0645\u0627": 277, "\u0641": 278, "\u25814": 279, "\u2581\u0627\u0644\u0645\u062a\u0639\u0644\u0642\u0629": 280, "\u2581This": 281, "\u2581if": 282, "\u2581could": 283, "\u2581her": 284, "\u2581\u0627\u0644\u0623\u0645\u0646": 285, "\u2581well": 286, "\u2581Commission": 287, "\u2581some": 288, "\u2581here": 289, "\u2581\u062a\u0644\u0643": 290, "\u2581\u0647\u0646\u0627\u0643": 291, "\u2581\u0645\u062c\u0644\u0633": 292, "\u2581\u0627\u0644\u0645": 293, "\u25815": 294, "\u2581activities": 295, "\u2581through": 296, "\u2581\u0625\u0630\u0627": 297, "\u2581\u0627\u0644\u0623\u0645\u064a\u0646": 298, "\u2581him": 299, "\u2581against": 300, "\u2581\u0647\u0646\u0627": 301, "\u2581\u0627\u0644\u0623\u0637\u0631\u0627\u0641": 302, "L": 303, "\u258110": 304, "\u2581\u0627\u0644\u0645\u062c\u0644\u0633": 305, "ll": 306, "\u2581\u0627\u0644\u0645\u0627\u062f\u0629": 307, "ah": 308, "\u2581\u0641\u064a\u0647\u0627": 309, "\u2581\u062d\u0633\u0646\u0627": 310, "\u2581between": 311, "ly": 312, "\u2581law": 313, "\u2581\u062a\u0646\u0641\u064a\u0630": 314, "\u2581people": 315, "\u2581\u0627\u0644\u062b\u0627\u0646\u064a": 316, "\u2581That": 317, "\u2581\u0627\u0644\u0648\u0637\u0646\u064a\u0629": 318, "\u2581take": 319, "\u2581\u0648\u0644\u0627": 320, "\u2581\u0623\u062e\u0631\u0649": 321, "\u2581get": 322, "\u2581meeting": 323, "\u2581these": 324, "\u2581new": 325, "\u2581\u0648\u0645\u0646": 326, "\u2581\u0645\u0627\u0630\u0627": 327, "\u2581per": 328, "\u0651\u064e": 329, "\u2581[": 330, "\u2581our": 331, "\u2581\u0643\u0627\u0646\u062a": 332, "\u2581\u0627\u0644\u0622\u0646": 333, "\u2581\u0627\u0644\u0642\u0631\u0627\u0631": 334, "\u2581\u064a\u062a\u0639\u0644\u0642": 335, "\u25816": 336, "\u2581\u0630\u0627\u062a": 337, "\u2581\u0628\u0639\u0636": 338, "\u2581\u0645\u0634\u0631\u0648\u0639": 339, "\u2581system": 340, "\u2581\u0639\u0645\u0644": 341, "\u2581country": 342, "\u2581...": 343, "\u2581two": 344, "\u2581Security": 345, "\u2581measures": 346, "\u2581organizations": 347, "\u2581\u0627\u0644\u0642\u0627\u0646\u0648\u0646": 348, "\u2581only": 349, "\u2581\u0625": 350, "\u2581Conference": 351, "\u2581\u0627\u0644\u0645\u0639\u0644\u0648\u0645\u0627\u062a": 352, "\u2581over": 353, "\u0661": 354, "\u2581\u0643\u0627\u0646\u0648\u0646": 355, "\u2581\u0628\u0647": 356, "\u2581Republic": 357, "\u2581security": 358, "\u2581\u0643": 359, "\u2581\u0627\u0644\u0641\u0642\u0631\u0629": 360, "\u258115": 361, "h": 362, "\u2581\u0642\u0628\u0644": 363, "\u2581may": 364, "S": 365, "\u2581O": 366, "\u2581now": 367, "\u2581children": 368, "\u2581\u0645\u062c\u0627\u0644": 369, "\u25817": 370, "\u2581Rights": 371, "er": 372, "\u2581got": 373, "\u2581\u0661\u0669": 374, "\u2581cooperation": 375, "\u062d": 376, "\u2581\u062a\u0642\u0631\u064a\u0631": 377, "\u2581\u0627\u0644\u0633\u0644\u0627\u0645": 378, "\u2581p": 379, "\u2581\u064a\u0643\u0648\u0646": 380, "\u2581\u0627\u0644\u062a\u0646\u0645\u064a\u0629": 381, "na": 382, "\u2581draft": 383, "ve": 384, "\u2581\u0645\u062b\u0644": 385, "\u2581when": 386, "\u2581\u064a\u0646\u0628\u063a\u064a": 387, "\u2581\u0627\u0644\u0623\u0639\u0645\u0627\u0644": 388, "\u2581\u0625\u0637\u0627\u0631": 389, ".\"": 390, "\u2581efforts": 391, "\u2581non": 392, "\u2581\u0644\u064a\u0633": 393, "\u2581programme": 394, "\u2581\u0648\u0623\u0646": 395, "\u2581\u0627\u0644\u0645\u0627\u0626\u0629": 396, "\u2581Development": 397, "\u2581than": 398, "\u2581\u0627\u0644\u062e\u0627\u0635": 399, "\u2581\u0627\u0644\u0633\u064a\u062f": 400, "\u2581\u0644\u0646": 401, "\u2581\u0643\u0646\u062a": 402, "\u2581\u062f\u0648\u0644\u0627\u0631": 403, "\u2581E": 404, "\u2581\u062d\u062a\u0649": 405, "\u2581\u0627\u0644\u062f\u0648\u0644\u0629": 406, "\u2581Oh": 407, "\u2581number": 408, "\u25818": 409, "\u2581\u0644\u062c\u0646\u0629": 410, "\u062a\u064a": 411, "\u2581resources": 412, "\u2581\u0627\u0644\u062e\u0627\u0635\u0629": 413, "\u258112": 414, "]": 415, "\u2581\u0644\u064a": 416, "\u2581\u0628\u0631\u0646\u0627\u0645\u062c": 417, "\u2581\u062a\u0639\u0632\u064a\u0632": 418, "\u2581\u064a\u062c\u0628": 419, "\u2581use": 420, "\u2581Ye": 421, "\u2581\u0627\u0644\u0645\u0631\u0623\u0629": 422, "\u2581P": 423, "\u2581she": 424, "\u2581make": 425, "\u2581\u0641\u0625\u0646": 426, "\u2581\u0639\u0644\u064a\u0647\u0627": 427, "\u2581order": 428, "\u2581\u0627\u0644\u0623\u0639\u0636\u0627\u0621": 429, "\u0627\u0621": 430, "\u2581\u0641\u0642\u0637": 431, "\u2581Special": 432, "\u2581\u0627\u0644\u0649": 433, "\u258120": 434, "\u2581\u0623\u0643\u062b\u0631": 435, "\u0632": 436, "\u2581C": 437, "\u2581must": 438, "\u2581want": 439, "\u2581Human": 440, "\u2581think": 441, "\u258130": 442, "\u2581\u0644\u0643\u0646": 443, "\u2581\u062a\u0643\u0648\u0646": 444, "\u2581Group": 445, "\u2581assistance": 446, "\u2581process": 447, "\u2581provide": 448, "\u2581\u0639\u062f\u062f": 449, "E": 450, "\u2581paragraph": 451, "\u2581regional": 452, "\u2581cent": 453, "\u2581issues": 454, "\u25819": 455, "\u2581But": 456, "kay": 457, "\u2581years": 458, "\u2581first": 459, "\u2581\u062a\u0642\u062f\u064a\u0645": 460, "th": 461, "\u2581\u0633\u064a": 462, "\u2581economic": 463, "\u2581members": 464, "\u258111": 465, "\u2581where": 466, "\u2581ensure": 467, "\u2581\u0639\u0645\u0644\u064a\u0629": 468, "\u2581\u0627\u0644\u0623\u062e\u0631\u0649": 469, "\u2581\u062c\u062f\u0648\u0644": 470, "\u258118": 471, "\u2581So": 472, "\u2581\u0627\u0644\u062a\u0639\u0627\u0648\u0646": 473, "\u2581social": 474, "\u2581article": 475, "\u2581financial": 476, "\u2581\u0648\u0636\u0639": 477, "\u2581us": 478, "\u258114": 479, "\u2581\u0633\u062a": 480, "\u2581further": 481, "\u2581see": 482, "\u2581said": 483, "\u2581\u0634\u064a\u0621": 484, "\u2581particular": 485, "\u2581\u0627\u0644\u0630\u064a\u0646": 486, "\u2581\u062a\u0634\u0631\u064a\u0646": 487, "\u2581services": 488, "\u2581\u0646\u0639\u0645": 489, "\u2581\u0627\u0644\u0645\u0639\u0646\u064a\u0629": 490, "\u2581\u062a\u0645": 491, "\u2581good": 492, "or": 493, "\u2581de": 494, "\u2581B": 495, "\u2581shall": 496, "\u2581They": 497, "\u2581decision": 498, "\u258113": 499, "\u2581Office": 500, "\u2581\u0627\u0644\u062f\u0648\u0631\u0629": 501, "al": 502, "\u2581\u0639\u062f\u0645": 503, "\u2581\u0627\u0644\u0645\u0648\u0627\u0631\u062f": 504, "\u2581being": 505, "in": 506, "\u2581\u0627\u0644\u0645\u0633\u0627\u0639\u062f\u0629": 507, "\u2581\u0639\u0644\u064a\u0647": 508, "\u2581\u0627\u0644\u0648\u0642\u062a": 509, "\u2581\u0627\u0644\u0641\u0631\u064a\u0642": 510, "\u2581within": 511, "\u2581party": 512, "\u2581provided": 513, "\u2581\u0627\u0644\u062a\u0642\u0631\u064a\u0631": 514, "\u2581way": 515, "\u2581developing": 516, "\u258116": 517, "\u2581programmes": 518, "\u062a\u0643": 519, "\u2581All": 520, "\u2581December": 521, "\u2581\u0648\u0644\u0643\u0646": 522, "\u0637": 523, "\u2581public": 524, "\u2581\u0627\u0644\u0627\u0642\u062a\u0635\u0627\u062f\u064a\u0629": 525, "\u2581\u0644\u0647\u0627": 526, "\u2581\u0627\u0644\u0623\u0637\u0641\u0627\u0644": 527, "\u2581relevant": 528, "\u2581\u0648\u064a": 529, "\u2581\u0644\u0643": 530, "\u2581\u0639": 531, "\u2581back": 532, "\u2581how": 533, "\u2581\u0627\u0644\u0645\u0639\u0646\u064a": 534, "\u2581\u062f\u0648\u0646": 535, "\u2581before": 536, "\u2581\u0627\u0644\u0627\u062a\u0641\u0627\u0642\u064a\u0629": 537, "\u2581There": 538, "\u2581\u0633\u0623": 539, "\u258117": 540, "\u2581\u0636\u062f": 541, "\u258119": 542, "\u2581adopted": 543, "\u2581Well": 544, "\u2581during": 545, "\u0634": 546, "\u2581\u0633": 547, "\u2581To": 548, "\u2581As": 549, "\u2581areas": 550, "\u2581\u0645\u0646\u0647\u0627": 551, "\u0643\u0645": 552, "\u2581period": 553, "\u2581\u0643\u0630\u0644\u0643": 554, "\u2581level": 555, "\u2581At": 556, "\u2581\u0627\u0644\u0623\u0645\u0631": 557, "\u2581health": 558, "\u2581\u0646\u062d\u0648": 559, "\u2581\u0648\u062a": 560, "\u2581\u0637\u0631\u064a\u0642": 561, "\u2581staff": 562, "\u2581peace": 563, "\u2581\u0627\u0644\u0639\u0627\u0644\u0645\u064a": 564, "\u2581management": 565, "\u2581held": 566, "\u2581world": 567, "\u2581\u0627\u0644\u0635\u0644\u0629": 568, "\u2581President": 569, "\u2581situation": 570, "\u2581part": 571, "\u2581persons": 572, "\u2581!": 573, "\u2581\u0639\u0646\u062f\u0645\u0627": 574, "\u2581\u0625\u0646\u0647": 575, "\u2581She": 576, "i": 577, "\u2581\u0627\u0644\u062d\u0643\u0648\u0645\u064a\u0629": 578, "\u2581taken": 579, "\u2581\u0627\u0644\u0645\u0627\u0644\u064a\u0629": 580, "\u2581going": 581, "\u2581regard": 582, "\u2581\u0648\u0641\u0642\u0627": 583, "\u0651\u0650": 584, "\u2581protection": 585, "\u2581\u0625\u062f\u0627\u0631\u0629": 586, "\u2581action": 587, "\u2581legal": 588, "\u2581both": 589, "):": 590, "\u2581\u0627\u0644\u0645\u062c\u062a\u0645\u0639": 591, "\u2581\u0627\u0644\u0623\u0633\u0627\u0633\u064a\u0629": 592, "\u2581\u0631\u0626\u064a\u0633": 593, "\u2581political": 594, "\u2581\u0627\u0644\u0641\u062a\u0631\u0629": 595, "\u2581review": 596, "\u2581education": 597, "\u258131": 598, "\u2581\u0623\u062d\u062f": 599, "\u2581following": 600, "\u2581parties": 601, "\u258121": 602, "\u2581\u0628\u0645\u0648\u062c\u0628": 603, "\u2581\u0645\u0643\u062a\u0628": 604, "g": 605, "\u2581May": 606, "\u2581\u0627\u0644\u0639\u0627\u0644\u0645\u064a\u0629": 607, "\u2581\u0641\u064a\u0647": 608, "\u2581Programme": 609, "\u2581Organization": 610, "\u2581community": 611, "\u062f\u064a\u0633\u0645\u0628\u0631": 612, "\u2581most": 613, "\u2581\u0648\u0625\u0630": 614, "\u2581respect": 615, "\u062a\u0647": 616, "\u2581\u0627\u0644\u062d\u0643\u0648\u0645\u0629": 617, "\u2581\u0627\u0644\u0628\u0646\u062f": 618, "\u2581\u0645\u0646\u0630": 619, "\u2581\u062d\u064a\u062b": 620, "\u2581\u0627\u0644\u0646\u0627\u0645\u064a\u0629": 621, "\u2581important": 622, "\u2581continue": 623, "\u2581()": 624, "\u2581\u0628\u0634\u0643\u0644": 625, "\u2581special": 626, "\u2581\u062a\u062d\u0642\u064a\u0642": 627, "\u2581same": 628, "es": 629, "\u2581policy": 630, "\u2581\u0648\u0639\u0644\u0649": 631, "\u2581accordance": 632, "\u2581year": 633, "\u2581many": 634, "\u2581\u0627\u0644\u0646\u0638\u0631": 635, "\u2581\u062d\u0627\u0644\u0629": 636, "\u2581\u0644\u062f\u0649": 637, "\u2581\u0627\u0644\u0637\u0631\u0641": 638, "\u2581D": 639, "\u2581training": 640, "\u2581\u0644\u0623\u0646": 641, "\u2581agenda": 642, "\u2581\u0623\u0641\u0631\u064a\u0642\u064a\u0627": 643, "\u2581\u061b": 644, "\u2581among": 645, "\u062e": 646, "\u258125": 647, "\u2581\u0628\u0646\u0627\u0621": 648, "\u2581\u0633\u0648\u0641": 649, "\u2581F": 650, "\u2581\u0627\u0644\u0623\u0633\u0644\u062d\u0629": 651, "\u2581Africa": 652, "\u2581capacity": 653, "\u2581recommendations": 654, "\u258122": 655, "\u2581Member": 656, "\u2581access": 657, "\u2581\u0648\u0647\u0648": 658, "\u2581very": 659, "\u2581\u0644\u0647": 660, "\u2581place": 661, "\u2581three": 662, "\u2581re": 663, "\u2581If": 664, "it": 665, "\u2581\u0627\u0644\u0631\u0626\u064a\u0633": 666, "\u2581effective": 667, "\u2581\u0645\u0646\u0638\u0645\u0629": 668, "\u2581\u0627\u0644\u0627\u0642\u062a\u0635\u0627\u062f\u064a": 669, "\u2581reports": 670, "\u2581after": 671, "\u2581working": 672, "\u2581\u0627\u0644\u062f\u0639\u0645": 673, "\u2581\u062c\u0645\u0647\u0648\u0631\u064a\u0629": 674, "\u2581come": 675, "\u2581For": 676, "un": 677, "Add": 678, "\u2581f": 679, "\u2581established": 680, "\u2581\u062c\u062f\u0627": 681, "\u2581\u0643\u064a\u0641": 682, "\u2581\u0623\u0639\u0645\u0627\u0644": 683, "\u0636": 684, "\u2581\u0648\u0623": 685, "\u2581role": 686, "\u2581\u0645\u0624\u062a\u0645\u0631": 687, "\u2581June": 688, "\u0626": 689, "\u2581World": 690, "f": 691, "\u2581\u0639\u0645\u0644\u064a\u0627\u062a": 692, "\u2581case": 693, "\u2581\u0639\u0646\u062f": 694, "\u2581\u0627\u0644\u0628\u0631\u0646\u0627\u0645\u062c": 695, "\u2581\u0646\u0638\u0627\u0645": 696, "\u258123": 697, "\u0644\u0627": 698, "\u2581\u0627\u0644\u0639\u0627\u0644\u0645": 699, "\u2581\u0632\u064a\u0627\u062f\u0629": 700, "\u2581\u0648\u0647\u064a": 701, "\u2581related": 702, "\u2581down": 703, "o": 704, "\u2581without": 705, "\u2581because": 706, "\u2581life": 707, "\u2581\u0627\u0644\u0625\u0642\u0644\u064a\u0645\u064a\u0629": 708, "\u062a\u0647\u0627": 709, "\u2581\u0627\u0644\u0645\u062d\u0643\u0645\u0629": 710, "\u2581Parties": 711, "\u2581\u0622\u062e\u0631": 712, "\u2581set": 713, "\u258124": 714, "\u2581view": 715, "\u2581present": 716, "\u2581progress": 717, "\u2581then": 718, "\u2581\u0627\u0644\u0627\u062a\u062d\u0627\u062f": 719, "\u0630": 720, "\u2581'": 721, "\u2581\u0627\u0644\u0645\u0646\u0638\u0645\u0627\u062a": 722, "\u2581full": 723, "\u2581\u0642\u0631\u0627\u0631": 724, "st": 725, "\u2581\u0648\u0642\u062a": 726, "\u2581\u0634": 727, "\u2581\u0627\u0644\u0645\u0624\u0631\u062e": 728, "\u2581\u0627\u0644\u0646\u0638\u0627\u0645": 729, "\u2581\u0633\u064a\u0645\u0627": 730, "\u2581\u0628\u0627\u0644\u0646\u0633\u0628\u0629": 731, "\u2581\u0627\u0644\u0645\u0642\u0631\u0631": 732, "\u2581Social": 733, "\u2581help": 734, "\u2581\u0625\u0644\u0627": 735, "\u2581\u0623\u0646\u0647\u0627": 736, "\u2581since": 737, "\u2581How": 738, "\u2581item": 739, "\u2581nuclear": 740, "\u2581say": 741, "\u2581violence": 742, "\u2581Economic": 743, "\u2581appropriate": 744, "\u2581possible": 745, "\u0640\u0640\u0640": 746, "\u2581still": 747, "\u2581\u0627\u0644\u0625\u062f\u0627\u0631\u0629": 748, "\u2581\u0648\u0630\u0644\u0643": 749, "\u2581\u0627\u0644\u0628\u0634\u0631\u064a\u0629": 750, "\u2581necessary": 751, "\u2581man": 752, "\u2581\u0627\u0644\u0631\u0626\u064a\u0633\u064a\u0629": 753, "\u2581\u0646\u062d\u0646": 754, "\u2581\u062d\u0632\u064a\u0631\u0627\u0646": 755, "\u2581On": 756, "\u266a": 757, "\u2581\u0644\u062d\u0642\u0648\u0642": 758, "\u0662": 759, "\u2581\u0627\u0644\u062e\u062f\u0645\u0627\u062a": 760, "\u2581National": 761, "\u2581even": 762, "\u2581M": 763, "\u2581technical": 764, "\u2581\u0633\u0646": 765, "\u2581\u0627\u0644\u0639\u0627\u0645\u0644": 766, "\u2581\u0627\u0644\u0648\u0637\u0646\u064a": 767, "\u2581cases": 768, "\u2581basis": 769, "\u064a\u0627": 770, "\u2581Board": 771, "\u2581\u0627\u0644\u0645\u0624\u062a\u0645\u0631": 772, "\u2581\u0648\u0645\u0627": 773, "\u2581\u0627\u0644\u0645\u0646\u0638\u0645\u0629": 774, "\u258128": 775, "\u2581\u0627\u0644\u062a\u062f\u0627\u0628\u064a\u0631": 776, "\u2581African": 777, "\u2581end": 778, "\u2581global": 779, "\u2581million": 780, "\u2581gender": 781, "\u2581institutions": 782, "on": 783, "\u2581budget": 784, "\u2581\u0627\u0644\u0648\u0644\u0627\u064a\u0627\u062a": 785, "\u2581used": 786, "\u2581\u0627\u0633\u062a\u062e\u062f\u0627\u0645": 787, "\u064a\u0648\u0646\u064a\u0647": 788, "\u2581\u0627\u0644\u0646\u0648\u0648\u064a\u0629": 789, "\u2581July": 790, "\u062a\u064a\u0646": 791, "\u2581\u0645\u0639\u0644\u0648\u0645\u0627\u062a": 792, "\u2581\u0623\u0639\u0636\u0627\u0621": 793, "\u258127": 794, "\u2581\u0627\u0644\u0623\u0646\u0634\u0637\u0629": 795, "\u2581groups": 796, "\u0648\u0644": 797, "\u2581\u0627\u062a\u0641\u0627\u0642\u064a\u0629": 798, "\u2581\u062b\u0645": 799, "\u0635": 800, "\u0627\u0645": 801, "\u258126": 802, "\u2581while": 803, "\u2581needs": 804, "\u2581\u0627\u0644\u0625\u0646\u0645\u0627\u0626\u064a\u0629": 805, "\u2581New": 806, "\u2581general": 807, "\u2581\u0627\u0644\u0645\u0633\u0627\u0626\u0644": 808, "\u2581each": 809, "\u2581\u0634\u062e\u0635": 810, "\u2581long": 811, "\u2581provisions": 812, "\u2581meetings": 813, "\u2581b": 814, "\u2581\u0627\u0644\u0627\u062c\u062a\u0645\u0627\u0639\u064a\u0629": 815, "\u2581\u0644\u0639\u0627\u0645": 816, "\u2581H": 817, "up": 818, "\u2581\u0646\u0637\u0627\u0642": 819, "\u2581\u0625\u062c\u0631\u0627\u0621": 820, "\u2581\u0631\u0642\u0645": 821, ".1": 822, "\u2581\u062c": 823, "\u2581consideration": 824, "\u2581\u0641\u0642\u062f": 825, "\u2581\u0627\u0644\u064a\u0648\u0645": 826, "\u2581\u0627\u0644\u0646\u0633\u0627\u0621": 827, "\u2581include": 828, "\u2581\u0648\u0627\u0644\u0645": 829, "\u2581\u0642": 830, "\u2581\u0625\u0646\u0634\u0627\u0621": 831, "\u2581upon": 832, "\u2581give": 833, "\u2581too": 834, "\u2581\u0645\u0645\u0627": 835, "\u2581policies": 836, "\u2581\u0627\u0644\u0623\u0645\u0627\u0646\u0629": 837, "\u2581\u0628\u0644": 838, "\u2581c": 839, "\u2581high": 840, "\u2581\u0623\u0633\u0627\u0633": 841, "\u2581\u0627\u0646\u0627": 842, "\u2581\u0645\u062c\u0645\u0648\u0639\u0629": 843, "\u2581account": 844, "\u2581\u0627\u0644\u0633\u0644\u0627\u062d": 845, "\u2581gu": 846, "\u2581Court": 847, "\u2581Working": 848, "\u2581\u062e\u0627\u0635\u0629": 849, "\u2581really": 850, "\u2581\u062a\u062f\u0627\u0628\u064a\u0631": 851, "\u2581concerned": 852, "\u2581\u0644\u0644\u0623\u0645\u0645": 853, "\u2581\u0642\u0627\u0646\u0648\u0646": 854, "\u2581\u0627\u0644\u0645\u064a\u0632\u0627\u0646\u064a\u0629": 855, "\u2581\u0644\u0648": 856, "\u2581\u062a\u0642\u062f\u0645": 857, "\u2581\u0648\u0645": 858, "\u2581something": 859, "\u2581\u0627\u0644\u0645\u062d\u0644\u064a\u0629": 860, "\u2581area": 861, "\u25812005": 862, "\u2581\u0627\u0644\u062c\u0647\u0648\u062f": 863, "\u2581Yes": 864, "\u2581\u062a\u0645\u0648\u0632": 865, "\u2581available": 866, "\u2581issue": 867, "\u2581T": 868, "\u258129": 869, "\u2581child": 870, "\u2581\u0627\u0644\u0648\u0627\u0631\u062f\u0629": 871, "\u2581\u062c\u0627\u0646\u0628": 872, "\u2581\u0627\u0644\u0645\u0648\u0638\u0641\u064a\u0646": 873, "\u2581\u0623\u0645": 874, "\u0638": 875, "\u2581\u0623\u0646\u0634\u0637\u0629": 876, "\u0627\u0626": 877, "\u2581much": 878, "\u2581Law": 879, "uck": 880, "\u2581local": 881, "\u0627\u0631": 882, "\u2581\u0647": 883, "\u2581delegation": 884, "\u2581\u0648\u062c\u0648\u062f": 885, "\u2581\u0644\u0644\u062c\u0646\u0629": 886, "\u2581September": 887, "\u2581November": 888, "\u2581does": 889, "\u2581European": 890, "\u2581data": 891, "\u2581\u0628\u0635\u0648\u0631\u0629": 892, "\u0639\u0631\u0641": 893, "\u064a\u0648\u0644\u064a\u0647": 894, "\u2581trade": 895, "\u2581\u0627\u0644\u062a\u0639\u0644\u064a\u0645": 896, "\u2581\u0648\u0627\u062d\u062f": 897, "\u2581\u0627\u0644\u0642\u0627\u0626\u0645\u0629": 898, "\u064d": 899, "\u25812012": 900, "\u2581\u0627\u0644\u0623\u0634\u062e\u0627\u0635": 901, "\u2581\u0648\u064a\u0646\u0628\u063a\u064a": 902, "\u2581\u0627\u0644\u0639\u0646\u0641": 903, "\u2581\u0627\u0644\u062d\u0642": 904, "\u2581region": 905, "\u2581Rapporteur": 906, "\u2581Secretariat": 907, "\u25812011": 908, "\u2581Why": 909, "\u2581October": 910, "\u2581Fund": 911, "\u2581tell": 912, "\u2581considered": 913, "\u2581\u062d\u0643\u0648\u0645\u0629": 914, "\u2581\u0648\u0627\u0644\u062a\u0646\u0645\u064a\u0629": 915, "\u2581Women": 916, "\u2581proposed": 917, "\u2581plan": 918, "\u2581off": 919, "\u0641\u064a": 920, "\u2581group": 921, "\u2581\u0648\u0628": 922, "\u2581police": 923, "\u2581never": 924, "\u2581little": 925, "\u2581framework": 926, "\u2581family": 927, "\u2581\u064a\u0648\u0645": 928, "\u2581submitted": 929, "\u2581\u0623\u0641\u0636\u0644": 930, "\u2581based": 931, "\u2581humanitarian": 932, "\u2581increase": 933, "\u2581\u0627\u0644\u0623\u0648\u0644\u0649": 934, "\u2581noted": 935, "\u2581address": 936, "\u0627\u0628": 937, "\u2581particularly": 938, "\u2581\u062f\u0639\u0645": 939, "\u2581\u062d\u0627\u0644\u0627\u062a": 940, "\u2581mean": 941, "\u2581Do": 942, "\u2581\u0625\u0644\u064a\u0647\u0627": 943, "\u2581conflict": 944, "\u2581importance": 945, "\u2581\u0627\u0644\u062c\u062f\u064a\u062f\u0629": 946, "CN": 947, "\u2581\u0627\u0644\u0645\u0631\u0641\u0642": 948, "\u2581\u0627\u062a\u062e\u0627\u0630": 949, "\u2581bodies": 950, "\u2581\u062e\u062f\u0645\u0627\u062a": 951, "\u2581\u062d": 952, "\u2581\u0627\u0644\u0628\u064a\u0627\u0646\u0627\u062a": 953, "\u2581last": 954, "\u2581My": 955, "\u2581\u0627\u0644\u062a\u0645\u064a\u064a\u0632": 956, "\u2581means": 957, "\u2581note": 958, "\u2581society": 959, "\u2581Action": 960, "\u2581\u0627\u0644\u0645\u0646\u0637\u0642\u0629": 961, "\u2581\u0627\u0644\u0642\u0627\u0646\u0648\u0646\u064a\u0629": 962, "\u2581\u0627\u0644\u062d\u0635\u0648\u0644": 963, "\u2581better": 964, "\u2581\u0627\u0644\u0633\u0627\u0639\u0629": 965, "\u0664": 966, "\u2581\u062a\u0642\u0648\u0645": 967, "\u2581God": 968, "\u2581day": 969, "\u2581\u0623\u0647\u0645\u064a\u0629": 970, "\u0631\u062d\u0628": 971, "\u2581document": 972, "\u2581Article": 973, "\u2581\u0627\u0644\u0645\u0633\u062a\u062f\u0627\u0645\u0629": 974, "\u2581military": 975, "\u2581\u0641\u0631\u064a\u0642": 976, "\u2581future": 977, "\u2581resolutions": 978, "\u2581developed": 979, "\u2581\u0631": 980, "\u0663": 981, "\u2581March": 982, "\u2581second": 983, "\u2581promote": 984, "\u2581\u0623\u064a\u0644\u0648\u0644": 985, "\u2581\u0627\u0644\u0635\u062f\u062f": 986, "\u2581Come": 987, "\u2581\u0641\u0649": 988, "\u2581\u0644\u0645\u0627\u0630\u0627": 989, "l": 990, "\u2581project": 991, "\u2581field": 992, "\u2581own": 993, "\u2581participation": 994, "\u2581o": 995, "\u2581Let": 996, "\u2581\u0648\u0643\u0630\u0644\u0643": 997, "\u2581\u0627\u0644\u0628\u0644\u062f": 998, "I": 999, "\u2581\u0628\u0633\u0628\u0628": 1000, "\u2581Department": 1001, "\u2581\u0627\u0644\u0645\u062a\u0635\u0644\u0629": 1002, "\u2581\u0627\u0644\u0628\u0639\u062b\u0629": 1003, "\u2581am": 1004, "\u25812000": 1005, "\u2581specific": 1006, "\u2581Mission": 1007, "\u2581Union": 1008, "B": 1009, "\u2581care": 1010, "\u2581let": 1011, "\u2581sector": 1012, "\u2581look": 1013, "\u2581\u0645\u0644\u064a\u0648\u0646": 1014, "\u2581\u0628\u0630\u0644\u0643": 1015, "\u2581required": 1016, "\u2581might": 1017, "\u2581doing": 1018, "\u063a": 1019, "\u25812006": 1020, "\u2581civil": 1021, "\u2581\u0627\u0646\u0647": 1022, "\u0645\u0627\u0631\u0633": 1023, "\u2581\u0627\u0646\u062a": 1024, "\u2581\u062a\u0648\u0641\u064a\u0631": 1025, "\u2581\u0627\u0644\u0633\u064a\u0627\u0633\u0627\u062a": 1026, "\u0667": 1027, "\u0633\u0628\u062a\u0645\u0628\u0631": 1028, "ation": 1029, "\u2581\u0623\u062b\u0646\u0627\u0621": 1030, "\u25812004": 1031, "\u2581\u0627\u0644\u062c\u0644\u0633\u0629": 1032, "\u2581\u0627\u0644\u0641\u0631\u0639\u064a\u0629": 1033, "\u2581agencies": 1034, "\u2581\u062d\u0642": 1035, "\u0668": 1036, "\u2581levels": 1037, "\u25812002": 1038, "\u2581sustainable": 1039, "\u0630\u0647\u0628": 1040, "\u2581\u062c\u062f\u064a\u062f\u0629": 1041, "\u2581poverty": 1042, "r": 1043, "\u2581call": 1044, "\u2581\u062d\u0648\u0644": 1045, "\u2581weapons": 1046, "\u0646\u0648\u0641\u0645\u0628\u0631": 1047, "\u2581\u0625\u0639\u0627\u062f\u0629": 1048, "\u2581change": 1049, "\u2581\u0627\u0644\u062b\u0627\u0646\u064a\u0629": 1050, "\u2581Report": 1051, "\u2581control": 1052, "\u2581again": 1053, "\u2581current": 1054, "\u2581April": 1055, "\u2581question": 1056, "\u2581\u0627\u0644\u0644\u0627\u0632\u0645\u0629": 1057, "\u2581authorities": 1058, "\u2581\u0641\u062a\u0631\u0629": 1059, "\u2581\u0623\u0631\u064a\u062f": 1060, "\u2581R": 1061, "\u2581\u0627\u0644\u0639": 1062, "\u2581\u0627\u0644\u0633\u064a\u0627\u0633\u064a\u0629": 1063, "\u2581given": 1064, "\u2581\u064a\u0644\u064a": 1065, "\u2581Governments": 1066, "\u2581\u0627\u0644\u0645\u0648\u0627\u062f": 1067, "\u2581\u0628\u0644\u062f\u0627\u0646": 1068, "\u2581\u0627\u0644\u0625\u062c\u0631\u0627\u0621\u0627\u062a": 1069, "\u25812003": 1070, "\u2581various": 1071, "\u2581\u0645\u0646\u0637\u0642\u0629": 1072, "\u2581\u0627\u0644\u062f\u064a\u0645\u0642\u0631\u0627\u0637\u064a\u0629": 1073, "\u2581put": 1074, "\u2581operations": 1075, "\u2581concern": 1076, "\u2581\u0627\u0644\u0625\u0646\u0645\u0627\u0626\u064a": 1077, "\u2581\u0627\u0644\u0645\u062a\u0639\u0644\u0642": 1078, "\u2581requested": 1079, "\u2581requirements": 1080, "\u2581Declaration": 1081, "\u2581\u0627\u0644\u0645\u0633\u062a\u0648\u0649": 1082, "\u2581G": 1083, "\u2581\u0627\u0644\u0625\u0646\u0633\u0627\u0646\u064a\u0629": 1084, "\u2581\u0645\u0633\u0623\u0644\u0629": 1085, "\u2581\u062d\u062f": 1086, "\u2581find": 1087, "\u2581\u0627\u0644\u0634\u0631\u0637\u0629": 1088, "\u2581South": 1089, "\u2581\u0665": 1090, "\u2581\u0627\u0644\u0633\u0643\u0627\u0646": 1091, "\u0631\u0629": 1092, "\u2581\u0627\u0644\u062a\u062c\u0627\u0631\u0629": 1093, "\u2581Act": 1094, "\u2581\u062f\u0648\u0631\u062a\u0647\u0627": 1095, "\u2581High": 1096, "\u2581love": 1097, "\u2581Protocol": 1098, "\u2581context": 1099, "\u2581\u0645\u0631\u0629": 1100, "\u2581\u062a\u062d\u062a": 1101, "\u2581\u0639\u0644\u064a": 1102, "\u2581\u062d\u0641\u0638": 1103, "\u2581\u0627\u0644\u062d\u0627\u0644\u0629": 1104, "\u2581L": 1105, "\u2581Affairs": 1106, "\u2581co": 1107, "\u0623\u0643\u062a\u0648\u0628\u0631": 1108, "\u2581inter": 1109, "\u0665": 1110, "\u2581contained": 1111, "\u2581\u0627\u0644\u0645\u0646\u0627\u0637\u0642": 1112, "\u2581attention": 1113, "\u2581representatives": 1114, "\u25812001": 1115, "\u2581Don": 1116, "\u2581additional": 1117, "\u2581why": 1118, "\u2581\u0625\u0646\u0647\u0627": 1119, "\u2581\u0631\u0628\u0645\u0627": 1120, "\u2581\u0627\u0644\u062a": 1121, "\u2581\u0627\u0644\u0641\u0642\u0631": 1122, "\u2581population": 1123, "\u2581However": 1124, "\u2581\u0627\u0644\u062a\u0627\u0644\u064a\u0629": 1125, "\u2581\u0642\u0627\u0644": 1126, "\u2581\u062c\u062f\u064a\u062f": 1127, "\u2581\u062a\u062d\u0633\u064a\u0646": 1128, "\u2581above": 1129, "\u2581\u0648\u0645\u0639": 1130, "\u2581\u0643\u0628\u064a\u0631": 1131, "\u2581addition": 1132, "en": 1133, "\u2581\u0645\u0643\u0627\u0641\u062d\u0629": 1134, "\u2581\u0622\u0630\u0627\u0631": 1135, "\u2581\u0627\u0644\u0627\u062c\u062a\u0645\u0627\u0639": 1136, "\u064a\u0631": 1137, "\u2581\u0648\u0627\u062d\u062f\u0629": 1138, "\u2581January": 1139, "\u2581\u0627\u0644\u0645\u0634\u062a\u0631\u0643\u0629": 1140, "\u2581\u0627\u0644\u0645\u0643\u062a\u0628": 1141, "\u2581agreed": 1142, "\u25812008": 1143, "\u2581\u0627\u0644\u0637\u0641\u0644": 1144, "\u2581\u0639\u0642\u062f": 1145, "\u2581\u0628\u0631\u0627\u0645\u062c": 1146, "\u2581towards": 1147, "\u2581\u062d\u0633\u0628": 1148, "\u0630\u0627": 1149, "\u2581\u064a\u062a\u0645": 1150, "\u2581representative": 1151, "\u2581taking": 1152, "\u2581consider": 1153, "\u2581d": 1154, "\u25812007": 1155, "\u2581person": 1156, "\u2581\u0627\u0644\u0623\u0647\u062f\u0627\u0641": 1157, "\u2581mandate": 1158, "\u2581\u0627\u0644\u0644\u0647": 1159, "\u0639\u062f": 1160, "\u2581\u0627\u0644\u0631\u0633\u0645\u064a\u0629": 1161, "\u2581conditions": 1162, "\u062b": 1163, "\u2581\u0627\u0644\u062a\u0627\u0628\u0639\u0629": 1164, "\u2581\u0627\u0644\u0633\u0627\u0628\u0642\u0629": 1165, "\u2581\u062a\u062d\u062f\u064a\u062f": 1166, "\u2581concerning": 1167, "\u2581\u062e\u0637\u0629": 1168, "ir": 1169, "\u2581status": 1170, "\u2581\u0633\u0646\u0629": 1171, "\u2581II": 1172, "\u25812013": 1173, "\u2581--": 1174, "\u0647\u0645\u0627": 1175, "\u2581W": 1176, "\u2581men": 1177, "\u2581\u062f\u0627\u062e\u0644": 1178, "\u2581impact": 1179, "\u2581\u0645\u0633\u062a\u0648\u0649": 1180, "\u2581\u062a\u0631\u064a\u062f": 1181, "\u0648\u0631": 1182, "\u2581U": 1183, "\u064a\u0627\u062a": 1184, "\u2581\u0623\u064a\u0627\u0631": 1185, "\u2581\u062a\u0639\u0631\u0641": 1186, "\u0643\u0631": 1187, "\u2581thing": 1188, "\u0638\u0646": 1189, "\u2581major": 1190, "\u2581request": 1191, "\u2581\u064a\u0628\u062f\u0648": 1192, "\u0666": 1193, "\u0648\u0645": 1194, "\u2581\u0627\u0644\u0639\u0645\u0644\u064a\u0629": 1195, "\u2581\u0639\u0644\u064a\u0643": 1196, "\u2581continued": 1197, "\u0623\u0646": 1198, "\u2581\u0644\u0630\u0644\u0643": 1199, "\u2581already": 1200, "\u258150": 1201, "\u2581different": 1202, "\u0641\u0639\u0644": 1203, "\u2581approach": 1204, "\u2581private": 1205, "\u2581projects": 1206, "\u2581statement": 1207, "\u2581force": 1208, "\u2581\u0627\u0644\u0625\u0631\u0647\u0627\u0628": 1209, "\u2581\u062e": 1210, "\u2581received": 1211, "\u2581\u0644\u0644\u0645": 1212, "\u2581member": 1213, "\u2581called": 1214, "\u2581\u0627\u0644\u0645\u0642\u062f\u0645\u0629": 1215, "\u2581\u0623\u0644\u0641": 1216, "\u2581\u0646\u064a\u0633\u0627\u0646": 1217, "\u2581establishment": 1218, "\u2581\u062d\u0627\u0644": 1219, "\u2581\u0635\u0627\u062d\u0628": 1220, "\u2581\u062d\u0642\u0627": 1221, "\u0660": 1222, "\u2581\u0634\u0643\u0631\u0627": 1223, "\u2581\u0627\u0644\u0648\u062b\u064a\u0642\u0629": 1224, "\u2581\u062d\u0645\u0627\u064a\u0629": 1225, "\u2581organization": 1226, "\u2581\u0637\u0644\u0628": 1227, "\u2581relating": 1228, "\u2581para": 1229, "\u2581rules": 1230, "\u2581another": 1231, "see": 1232, "\u2581together": 1233, "\u2581\u0648\u0627\u0644\u0627\u062c\u062a\u0645\u0627\u0639\u064a\u0629": 1234, "\u2581\u0627\u0644\u0642\u064a\u0627\u0645": 1235, "\u2581fact": 1236, "\u064c": 1237, "\u2581\u0645\u0643\u0627\u0646": 1238, "\u0645\u0627\u064a\u0648": 1239, "\u2581\u0644\u0647\u0630\u0627": 1240, "\u2581K": 1241, "\u2581best": 1242, "\u2581result": 1243, "\u2581\u0627\u0644\u0623\u0648\u0631\u0648\u0628\u064a": 1244, "\u2581\u062e\u0627\u0635": 1245, "\u2581every": 1246, "\u2581found": 1247, "\u2581whether": 1248, "\u2581total": 1249, "\u2581done": 1250, "\u2581Ms": 1251, "\u2581justice": 1252, "\u0645\u0646": 1253, "\u2581\u0633\u0646\u0648\u0627\u062a": 1254, "\u2581\u062f\u0648\u0644\u0629": 1255, "\u2581\u062f": 1256, "\u2581\u0625\u0644\u064a\u0647": 1257, "\u2581\u0633\u0628\u064a\u0644": 1258, "\u2581Arab": 1259, "\u2581\u0627\u0644\u0623": 1260, "\u2581\u0627\u0644\u062d\u0643\u0648\u0645\u0627\u062a": 1261, "\u2581\u0627\u0646\u0638\u0631": 1262, "\u0648\u062f": 1263, ");": 1264, "\u0627\u062d": 1265, "\u2581took": 1266, "\u2581great": 1267, "to": 1268, "\u2581\u0648\u0647\u0630\u0627": 1269, "\u2581\u0623\u0644\u0627": 1270, "\u2581discrimination": 1271, "\u2581Now": 1272, "\u2581Palestinian": 1273, "\u2581addressed": 1274, "\u2581\u0643\u0628\u064a\u0631\u0629": 1275, "\u2581\u0625\u062c\u0631\u0627\u0621\u0627\u062a": 1276, "\u2581\u0627\u0644\u0628\u0631\u0627\u0645\u062c": 1277, "\u2581These": 1278, "k": 1279, "\u2581water": 1280, "\u2581\u0666": 1281, "\u2581\u0623\u0642\u0644": 1282, "\u2581home": 1283, "\u2581With": 1284, "\u2581\u0627\u0644\u0635\u062d\u0629": 1285, "\u0643\u0644": 1286, "\u2581provision": 1287, "ic": 1288, "\u2581annex": 1289, "\u2581\u0644\u062a": 1290, "org": 1291, "\u2581\u0648\u0644\u0645": 1292, "\u2581comprehensive": 1293, "\u2581entitled": 1294, "\u2581\u0627\u0644\u0645\u0634\u0631\u0648\u0639": 1295, "\u0633\u062a": 1296, "\u2581\u0627\u0644\u0646": 1297, "\u2581\u0623\u0645\u0627\u0645": 1298, "\u2581\u0648\u0627\u0644\u0645\u0646\u0638\u0645\u0627\u062a": 1299, "\u2581legislation": 1300, "\u2581\u0645\u0631\u0643\u0632": 1301, "\u2581Is": 1302, "\u0623\u0628\u0631\u064a\u0644": 1303, "\u2581*": 1304, "\u2581\u0627\u0644\u0646\u0627\u0633": 1305, "\u0625": 1306, "\u2581\u0648\u0627\u0644\u062a\u064a": 1307, "\u2581therefore": 1308, "\u2581Ministry": 1309, "\u2581\u0623\u0643\u0628\u0631": 1310, "\u2581responsibility": 1311, "p": 1312, "\u2581around": 1313, "\u2581expressed": 1314, "\u2581monitoring": 1315, "\u2581\u0627\u0644\u0645\u0624\u0633\u0633\u0627\u062a": 1316, "\u2581especially": 1317, "\u2581\u0648\u0643\u0627\u0646": 1318, "\u064a\u0646\u0627\u064a\u0631": 1319, "\u2581coordination": 1320, "\u2581personnel": 1321, "\u2581\u0646\u0632\u0639": 1322, "\u2581\u0644\u0645\u0627": 1323, "\u2581\u0623\u0639\u062a\u0642\u062f": 1324, "\u2581\u0623\u0645\u0631": 1325, "\u2581matter": 1326, "\u2581costs": 1327, "\u2581armed": 1328, "\u2581Representative": 1329, "\u2581\u0627\u0644\u0645\u0633\u0627\u0648\u0627\u0629": 1330, "\u2581principles": 1331, "\u2581\u0627\u0644\u062a\u0642\u0627\u0631\u064a\u0631": 1332, "\u2581subject": 1333, "\u2581\u0627\u0644\u0627\u0633\u062a\u0634\u0627\u0631\u064a\u0629": 1334, "\u2581Where": 1335, "F": 1336, "\u2581\u0627\u0644\u0635\u0639\u064a\u062f": 1337, "\u2581\u0645\u0646\u0639": 1338, "\u2581fully": 1339, "\u2581\u0627\u0644\u0635\u063a\u064a\u0631\u0629": 1340, "\u2581\u0627\u0644\u062c\u0646\u0627\u0626\u064a\u0629": 1341, "\u2581\u0643\u0644\u0627": 1342, "\u2581small": 1343, "\u2581domestic": 1344, "\u2581systems": 1345, "\u2581Executive": 1346, "\u2581\u0627\u0644\u0625\u0642\u0644\u064a\u0645\u064a": 1347, "\u2581Who": 1348, "P": 1349, "\u2581\u0627\u0644\u0639\u0631\u0628\u064a\u0629": 1350, "\u2581\u0644\u0645\u0643\u0627\u0641\u062d\u0629": 1351, "\u2581\u0627\u0633\u062a\u0639\u0631\u0627\u0636": 1352, "\u2581meet": 1353, "\u2581existing": 1354, "\u2581\u0628\u0647\u0630\u0627": 1355, "\u2581\u0667": 1356, "\u064a\u0641": 1357, "\u2581key": 1358, "\u2581August": 1359, "\u2581\u0625\u0630": 1360, "\u2581\u0625\u0632\u0627\u0621": 1361, "\u258140": 1362, "\u2581next": 1363, "\u2581\u0661": 1364, "\u2581\u0645\u062e\u062a\u0644\u0641": 1365, "\u25812010": 1366, "\u2581\u0648\u0644": 1367, "\u2581course": 1368, "\u2581procedures": 1369, "\u2581reporting": 1370, "\u2581Just": 1371, "\u2581included": 1372, "\u2581criminal": 1373, "\u2581mechanisms": 1374, "\u2581\u0627\u0644\u062e\u0628\u0631\u0627\u0621": 1375, "\u2581decided": 1376, "\u2581technology": 1377, "\u2581\u0627\u0644\u0642\u062f\u0631\u0627\u062a": 1378, "\u2581implement": 1379, "\u2581\u062a\u0641\u0639\u0644": 1380, "\u2581\u0644\u064a\u0633\u062a": 1381, "\u2581least": 1382, "\u062f\u0629": 1383, "\u2581strengthen": 1384, "\u2581obligations": 1385, "\u2581\u0627\u0644\u062a\u0642\u062f\u0645": 1386, "governmental": 1387, "\u2581increased": 1388, "\u2581\u0623\u062d": 1389, "\u2581believe": 1390, "\u2581follow": 1391, "\u2581\u0627\u0644\u0642\u0636\u0627\u0621": 1392, "\u064a\u0644": 1393, "\u2581terms": 1394, "\u2581results": 1395, "\u2581five": 1396, "\u2581problem": 1397, "\u2581\u0644\u0643\u064a": 1398, "be": 1399, "D": 1400, "\u2581\u0641\u0636\u0644\u0627": 1401, "\u2581America": 1402, "le": 1403, "\u2581environment": 1404, "\u2581\u0627\u0644\u0645\u0634\u0627\u0631\u0643\u0629": 1405, "\u2581February": 1406, "\u2581\u0644\u0647\u0630\u0647": 1407, "\u2581Look": 1408, "\u2581\u0627\u0644\u0645\u062f\u0646\u064a": 1409, "\u25812.": 1410, "\u2581\u0622\u0628": 1411, "\u2581practices": 1412, "\u2581\u0646\u0641\u0633\u0647": 1413, "\u2581\u0627\u0639\u062a\u0645\u0627\u062f": 1414, "\u2581\u0646\u0642\u0635": 1415, "\u2581\u062d\u0627\u0644\u064a\u0627": 1416, "ta": 1417, "\u2581rule": 1418, "\u2581\u064a\u0643\u0646": 1419, "\u2581000": 1420, "\u0631\u062a": 1421, "\u2581\u0627\u0644\u0623\u0635\u0644\u064a\u0629": 1422, "ers": 1423, "\u2581\u0627\u0644\u0633\u0646\u062a\u064a\u0646": 1424, "\u0646\u062a": 1425, "\u2581regarding": 1426, "\u2581example": 1427, "\u2581\u0627\u0644\u062b\u0627\u0644\u062b\u0629": 1428, "\u2581food": 1429, "\u2581sorry": 1430, "\u2581\u0668": 1431, "\u2581\u0628\u063a\u064a\u0629": 1432, "\u2581adoption": 1433, "\u2581standards": 1434, "\u2581\u0639\u0628\u0631": 1435, ".2": 1436, "an": 1437, "\u2581\u0625\u0639\u062f\u0627\u062f": 1438, "K": 1439, "\u2581One": 1440, "\u2581\u0627\u0644\u0635\u0646\u062f\u0648\u0642": 1441, "\u2581reported": 1442, "\u2581\u0627\u0644\u062a\u0646\u0641\u064a\u0630": 1443, "\u2581agreement": 1444, "\u2581Go": 1445, "2": 1446, "\u2581four": 1447, "\u2581\u0645\u0648\u0627\u0635\u0644\u0629": 1448, "\u2581\u0648\u0627\u0644\u0627\u062c\u062a\u0645\u0627\u0639\u064a": 1449, "\u2581\u0645\u0645\u062b\u0644": 1450, "ch": 1451, "\u0623\u0648": 1452, "\u2581().": 1453, "\u2581\u0639\u0644\u0645\u0627": 1454, "\u2581problems": 1455, "\u2581decisions": 1456, "\u2581\u0627\u0644\u0645\u0634\u0627\u0631\u064a\u0639": 1457, "\u0627\u062f": 1458, "\u0631\u064a\u062f": 1459, "\u2581\u0644\u0643\u0644": 1460, "\u0646\u0629": 1461, "\u0627\u0646\u0638\u0631": 1462, "\u2581\u0623\u062e\u0628\u0631": 1463, "\u2581victims": 1464, "\u2581la": 1465, "\u2581\u0627\u0644\u0627\u062d\u062a\u064a\u0627\u062c\u0627\u062a": 1466, "\u25812009": 1467, "\u2581consultations": 1468, "\u0627\u0647": 1469, "H": 1470, "\u062e\u064a\u0631": 1471, "\u2581\u0644\u0641\u062a\u0631\u0629": 1472, "\u2581\u0631\u062c\u0644": 1473, "\u2581funds": 1474, "\u2581service": 1475, "\u2581yet": 1476, "\u2581\u0633\u064a\u0643\u0648\u0646": 1477, "\u2581\u0627\u0644\u0628\u0644\u0627\u063a": 1478, "\u2581\u0627\u0644\u062d\u064a\u0627\u0629": 1479, "\u2581contributions": 1480, "\u2581\u062f\u0648\u0631": 1481, "\u2581\u0635\u062d\u064a\u062d": 1482, "\u2581\u0664": 1483, "\u2581\u0627\u0644\u0635\u062d\u064a\u0629": 1484, "\u2581V": 1485, "\u2581\u0627\u0644\u0642": 1486, "\u2581\u062d\u064a\u0646": 1487, "\u0627\u0639": 1488, "\u2581\u0646\u062a\u0627\u0626\u062c": 1489, "ar": 1490, "\u2581risk": 1491, "\u2581Advisory": 1492, "\u2581\u0648\u062c\u0647": 1493, "\u2581UN": 1494, "\u2581N": 1495, "\u2581amount": 1496, "\u2581improve": 1497, "\u2581response": 1498, "\u2581land": 1499, "\u2581\u0628\u0639\u062b\u0629": 1500, "\u2581\u0644\u062f\u064a": 1501, "\u2581away": 1502, "\u2581\u0627\u0644\u062c\u0631\u064a\u0645\u0629": 1503, "\u2581cost": 1504, "\u2581office": 1505, "\u2581\u0645\u0646\u0638\u0648\u0645\u0629": 1506, "\u2581\u0627\u0644\u0645\u0639\u0642\u0648\u062f\u0629": 1507, "\u2581An": 1508, "\u2581\u0627\u0644\u062d\u0642\u0648\u0642": 1509, "\u2581\u0627\u0644\u0646\u062d\u0648": 1510, "\u2581mission": 1511, "\u2581providing": 1512, "\u2581behalf": 1513, "\u2581commitment": 1514, "\u2581Permanent": 1515, "\u2581strengthening": 1516, "\u2581Iraq": 1517, "\u2581\u062a\u0642\u064a\u064a\u0645": 1518, "\u2581\u0627\u0644\u0631\u0627\u0645\u064a\u0629": 1519, "\u2581Israel": 1520, "\u2581\u0639\u0634\u0631": 1521, "\u2581thought": 1522, "\u2581indigenous": 1523, "\u2581\u0646\u0641\u0633": 1524, "\u2581environmental": 1525, "\u2581name": 1526, "\u2581\u0627\u0644\u0627": 1527, "\u2581due": 1528, "\u2581post": 1529, "\u2581When": 1530, "\u2581sure": 1531, "\u0627\u0633": 1532, "\u2581\u0644\u0630\u0627": 1533, "\u2581\u0648\u0627\u0644\u0623\u0645\u0646": 1534, "as": 1535, "\u2581\u0627\u0644\u0644\u0627\u062c\u0626\u064a\u0646": 1536, "use": 1537, "\u2581light": 1538, "\u2581business": 1539, "\u2581government": 1540, "based": 1541, "\u2581\u0627\u0644\u0633\u064a\u062f\u0629": 1542, "\u2581several": 1543, "\u2581\u064a\u0648\u062c\u062f": 1544, "\u2581always": 1545, "\u2581\u0646\u0647\u0627\u064a\u0629": 1546, "\u2581recent": 1547, "man": 1548, "\u0647\u0646": 1549, "\u2581\u062c\u064a\u062f": 1550, "\u2581\u0642\u0627\u0626\u0645\u0629": 1551, "ce": 1552, "\u2581Are": 1553, "\u2581J": 1554, "\u062f\u064a": 1555, "\u2581East": 1556, "\u2581\u0636\u0631\u0648\u0631\u0629": 1557, "\u2581things": 1558, "\u2581Al": 1559, "*": 1560, "\u2581\u0623\u062d\u0643\u0627\u0645": 1561, "\u2581\u0627\u0644\u062f\u0627\u062e\u0644\u064a\u0629": 1562, "\u0648\u064a": 1563, "\u2581\u0627\u0644\u0631\u062c\u0644": 1564, "\u2581\u0648\u064a\u0645\u0643\u0646": 1565, "\u0644\u064a": 1566, "\u2581challenges": 1567, "\u2581disarmament": 1568, "\u2581establish": 1569, "\u2581anything": 1570, "\u2581common": 1571, "T": 1572, "at": 1573, "\u2581\u0627\u0644\u062d\u0627\u0644\u0627\u062a": 1574, "\u2581]": 1575, "\u2581\u0627\u0644\u0643\u062b\u064a\u0631": 1576, "\u2581assessment": 1577, "\u2581Some": 1578, "\u2581\u0644\u0623": 1579, "\u2581Service": 1580, "\u2581talk": 1581, "\u2581e": 1582, "\u2581\u0627\u0644\u0628\u064a\u0626\u0629": 1583, ".5": 1584, "\u2581Re": 1585, "\u2581secretariat": 1586, "\u2581\u0648\u063a\u064a\u0631\u0647\u0627": 1587, "\u2581night": 1588, "\u2581\u0669": 1589, "\u2581\u0634\u0628\u0627\u0637": 1590, "id": 1591, "\u2581\u0627\u0644\u0633\u0644\u0637\u0627\u062a": 1592, "\u064a\u0647": 1593, "\u2581\u0645\u062a": 1594, "\u2581peacekeeping": 1595, "\u0627\u0644\u0645": 1596, ",\"": 1597, "\u2581\u0623\u0634\u0643\u0627\u0644": 1598, "\u2581\u0648\u062a\u0639\u0632\u064a\u0632": 1599, "\u2581\u0627\u0644\u062a\u062f\u0631\u064a\u0628": 1600, "\u25811999": 1601, "\u2581provides": 1602, ".3": 1603, "\u2581today": 1604, "\u2581\u0627\u0644\u0645\u0633\u0623\u0644\u0629": 1605, "\u2581\u0627\u0644\u0623\u0645\u0631\u064a\u0643\u064a\u0629": 1606, "\u2581serious": 1607, "\u2581\u0627\u062a\u0641\u0627\u0642": 1608, "\u2581\u0628\u062d\u0642\u0648\u0642": 1609, "\u2581kind": 1610, "\u2581terrorism": 1611, "\u2581matters": 1612, "\u2581\u062d\u0644": 1613, "\u2581needed": 1614, "\u2581practice": 1615, "\u0627\u062c": 1616, "\u2581\u0644\u062f\u064a\u0643": 1617, "\u2581\u0639\u0646\u0647\u0627": 1618, "\u2581\u064a\u062c\u0631\u064a": 1619, "\u062a\u0646\u0627": 1620, "\u2581clear": 1621, "\u2581actions": 1622, "\u064a\u062f": 1623, "\u2581\u0639\u062f\u0629": 1624, "\u2581\u0623\u0639\u0644\u0645": 1625, "ent": 1626, "\u0641\u0628\u0631\u0627\u064a\u0631": 1627, "\u2581\u062a\u0646\u0638\u064a\u0645": 1628, "\u2581\u064a\u0645\u0643\u0646\u0643": 1629, "\u2581\u062c\u0646\u0648\u0628": 1630, "\u2581Not": 1631, "\u2581\u0644\u0647\u0645": 1632, "\u2581\u0627\u0644\u0642\u0636\u0627\u064a\u0627": 1633, "\u2581\u0644\u062a\u0639\u0632\u064a\u0632": 1634, "building": 1635, "\u2581\u0644\u0633\u062a": 1636, "\u25812014": 1637, "\u2581\u0622\u0633": 1638, "\u2581school": 1639, "\u2581days": 1640, "\u2581\u0627\u0644\u0645\u0628\u0627\u062f\u0626": 1641, "\u0623\u063a\u0633\u0637\u0633": 1642, "\u2581\u0627\u0644\u0642\u0637\u0627\u0639": 1643, "\u2581\u0627\u0644\u0625": 1644, "\u2581\u0627\u0644\u0645\u062f\u0646\u064a\u0629": 1645, "\u2581\u0627\u062c\u062a\u0645\u0627\u0639": 1646, "ry": 1647, "\u2581significant": 1648, "\u2581past": 1649, "\u2581\u0623\u0648\u0644\u0627": 1650, "\u2581money": 1651, "\u2581having": 1652, "\u2581leave": 1653, "\u2581initiatives": 1654, "\u2581UNDP": 1655, "\u2581Minister": 1656, "\u2581develop": 1657, "\u2581\u062e\u0627\u0631\u062c": 1658, "\u2581whole": 1659, "\u2581keep": 1660, "\u2581crime": 1661, "\u2581girls": 1662, "\u2581reform": 1663, "M": 1664, "\u2581lack": 1665, "\u2581\u0627\u0644\u062c\u0646\u0633\u064a\u0646": 1666, "\u2581ever": 1667, "\u2581\u0636\u0645\u0627\u0646": 1668, "\u2581\u0627\u0644\u0625\u062f\u0627\u0631\u064a\u0629": 1669, "\u2581dialogue": 1670, "\u2581space": 1671, "\u2581until": 1672, "\u2581un": 1673, "\u2581\u0648\u0642\u0627\u0644": 1674, "\u2581prevention": 1675, "\u2581able": 1676, "\u2581\u0628\u0623\u0646\u0647": 1677, "\u2581THE": 1678, "\u2581become": 1679, "\u2581Director": 1680, "\u2581\u0625\u0639\u0644\u0627\u0646": 1681, "\u2581peoples": 1682, "\u2581regular": 1683, "\u2581\u0639\u0627\u0645\u0629": 1684, "\u2581told": 1685, "\u2581documents": 1686, "\u2581\u064a\u0642\u0648\u0645": 1687, "\u2581application": 1688, "\u2581\u0627\u0644\u0627\u062c\u062a\u0645\u0627\u0639\u0627\u062a": 1689, "\u2581HIV": 1690, "\u2581\u0623\u0645\u0627": 1691, "\u2581Commissioner": 1692, "\u2581\u0627\u0644\u0634\u0627\u0645\u0644": 1693, "\u2581strategy": 1694, "AC": 1695, "\u2581planning": 1696, "\u2581\u0633\u064a\u0627\u0642": 1697, "\u2581Thank": 1698, "\u2581third": 1699, "\u2581\u062a\u062a\u0639\u0644\u0642": 1700, "\u2581\u0627\u0644\u062a\u0642\u0646\u064a\u0629": 1701, "\u2581\u0627\u0644\u0634\u0624\u0648\u0646": 1702, "\u2581\u062a\u0642\u0627\u0631\u064a\u0631": 1703, "\u2581\u0627\u0644\u0623\u062e\u064a\u0631\u0629": 1704, "\u2581open": 1705, "\u2581\u0643\u0645": 1706, "\u2581\u0627\u0644\u062d\u062f": 1707, "\u2581main": 1708, "\u2581\u064a\u0642\u062f\u0645": 1709, "\u2581list": 1710, "\u2581forces": 1711, "\u2581\u0623\u0639\u0644\u0627\u0647": 1712, "\u2581\u0645\u0634\u0627\u0631\u064a\u0639": 1713, "\u2581\u0627\u0644\u0639\u062f\u064a\u062f": 1714, "\u2581See": 1715, "\u25813.": 1716, "\u2581His": 1717, "\u2581promotion": 1718, "\u2581Chairman": 1719, "term": 1720, "\u0645\u0629": 1721, "\u2581\u0628\u064a": 1722, "\u2581Information": 1723, "\u2581\u0639\u0645\u0644\u0627": 1724, "\u2581\u0645\u062d\u062f\u062f\u0629": 1725, "\u2581equality": 1726, "\u2581arms": 1727, "\u2581date": 1728, "\u2581dated": 1729, "\u2581\u0628\u0627\u0621": 1730, "\u0628\u064a": 1731, "\u2581Covenant": 1732, "\u2581While": 1733, "\u2581\u0634\u064a\u0626\u0627": 1734, "\u0644\u062a": 1735, "ie": 1736, "\u2581free": 1737, "\u2581\u0627\u0644\u062b\u0627\u0644\u062b": 1738, "\u2581violations": 1739, "\u2581\u0627\u0644\u0634\u0639\u0648\u0628": 1740, "\u2581however": 1741, "\u2581\u0627\u0644\u062a\u0646\u0641\u064a\u0630\u064a": 1742, "\u2581trafficking": 1743, "\u2581procedure": 1744, "\u2581\u0627\u0644\u062e\u0627\u0645\u0633\u0629": 1745, "\u2581\u062a\u0634\u0645\u0644": 1746, "\u2581\u0627\u0644\u0623\u0633\u0627\u0633\u064a": 1747, "\u0651\u064f": 1748, "\u2581missions": 1749, "\u2581acts": 1750, "\u2581body": 1751, "\u2581equipment": 1752, "\u2581\u0645\u062c\u0627\u0644\u0627\u062a": 1753, "\u2581requests": 1754, "the": 1755, "\u2581administrative": 1756, "\u2581\u0627\u0644\u062c\u0632\u0621": 1757, "\u2581biennium": 1758, "\u2581Centre": 1759, "\u2581real": 1760, "\u2581\u062d\u062f\u062b": 1761, "\u2581\u0625\u0645\u0643\u0627\u0646\u064a\u0629": 1762, "\u2581involved": 1763, "\u2581research": 1764, "\u2581point": 1765, "\u0627\u0641": 1766, "\u2581growth": 1767, "il": 1768, "ul": 1769, "\u2581\u0662": 1770, "\u2581focus": 1771, "\u2581\u0644\u0644\u0641\u062a\u0631\u0629": 1772, "\u2581\u0627\u0644\u0645\u0634\u062a\u0631\u0643": 1773, "\u2581\u0627\u0644\u0648\u062b\u0627\u0626\u0642": 1774, "\u2581far": 1775, "\u2581certain": 1776, "\u2581\u0645\u062f\u0649": 1777, "\u2581\u0627\u0644\u0634": 1778, "\u2581\u0627\u0644\u0639\u0631\u0627\u0642": 1779, "\u2581wish": 1780, "\u2581priority": 1781, "\u2581\u0635\u0646\u062f\u0648\u0642": 1782, "\u2581\u064a\u062a\u0635\u0644": 1783, "\u2581\u0627\u0644\u0625\u0639\u0644\u0627\u0645": 1784, "\u2581\u0636\u0645\u0646": 1785, "\u2581prevent": 1786, "\u2581\u0627\u0644\u0641\u0635\u0644": 1787, "\u2581\u0639\u0646\u0647": 1788, "\u2581\u062a\u0639\u0645\u0644": 1789, "\u2581living": 1790, "\u2581\u062a\u0645\u0627\u0645\u0627": 1791, "\u2581\u062a\u0645\u0648\u064a\u0644": 1792, "\u2581\u0646\u0648\u0639": 1793, "\u2581\u0627\u0644\u0645\u0624\u0642\u062a": 1794, "\u2581pro": 1795, "\u2581\u0627\u0644\u0627\u062a\u062c\u0627\u0631": 1796, "\u2581responsible": 1797, "\u2581\u0648\u0632\u0627\u0631\u0629": 1798, "\u2581cultural": 1799, "\u2581\u0627\u0644\u0623\u0631\u0627\u0636\u064a": 1800, "\u2581\u0644\u062a\u0646\u0641\u064a\u0630": 1801, "ment": 1802, "\u2581making": 1803, "\u2581100": 1804, "\u2581\u0639\u0634\u0631\u0629": 1805, "\u2581\u0627\u0644\u0645\u0646\u0627\u0639\u0629": 1806, "\u2581\u062f\u0648\u0644": 1807, "\u2581\u0648\u0625\u0644\u0649": 1808, "3": 1809, "\u2581York": 1810, "\u2581official": 1811, "\u2581\u0627\u0644\u0642\u0631\u0627\u0631\u0627\u062a": 1812, "\u2581\u0648\u063a\u064a\u0631": 1813, "\u2581Good": 1814, "\u2581\u0628\u062f": 1815, "\u2581bring": 1816, "\u2581\u0628\u064a\u0627\u0646\u0627\u062a": 1817, "\u2581\u062a\u0639\u0644\u0645": 1818, "\u0625\u0646": 1819, "\u2581Treaty": 1820, "\u2581\u0627\u0646\u0647\u0627": 1821, "\u2581\u0648\u0625\u0646": 1822, "\u2581\u0627\u0644\u062a\u062c\u0627\u0631\u064a\u0629": 1823, "\u2581\u0627\u0644\u062d\u0627\u0644\u064a\u0629": 1824, "\u0648\u0633": 1825, "\u2581\u0631\u0633\u0627\u0644\u0629": 1826, "\u2581months": 1827, "\u2581treatment": 1828, "ter": 1829, "us": 1830, "\u2581China": 1831, "\u2581war": 1832, "\u2581treaty": 1833, "\u2581\u0645\u0633\u0627\u0639\u062f\u0629": 1834, "\u2581section": 1835, "\u0628\u0629": 1836, "\u2581\u0628\u0627\u0644\u0641\u0639\u0644": 1837, "\u2581\u0627\u0644\u0627\u062c\u062a\u0645\u0627\u0639\u064a": 1838, "\u2581production": 1839, "\u2581recommended": 1840, "\u2581individual": 1841, "\u2581\u0627\u0644\u0645\u0633\u0644\u062d\u0629": 1842, "\u2581\u0644\u0644\u062f\u0648\u0644": 1843, "\u0644\u0645": 1844, "\u0627\u0643": 1845, "\u2581\u062c\u0647\u0648\u062f": 1846, "\u2581\u062b\u0644\u0627\u062b\u0629": 1847, "\u2581agreements": 1848, "\u2581\u0627\u0644\u0623\u0631\u0636": 1849, "\u2581line": 1850, "\u0646\u0649": 1851, "\u2581committed": 1852, "\u2581early": 1853, "\u2581left": 1854, "\u2581others": 1855, "\u2581employment": 1856, "\u2581position": 1857, "\u2581act": 1858, "\u2581\u0645\u0628\u0627\u0634\u0631\u0629": 1859, "\u2581\u0639\u0644\u064a\u0646\u0627": 1860, "\u2581\u062a\u0632\u0627\u0644": 1861, "\u258135": 1862, "\u2581\u0646\u0633\u0628\u0629": 1863, "\u0624": 1864, "\u2581instruments": 1865, "\u2581Your": 1866, "\u2581\u0627\u0648": 1867, "\u2581\u0633\u064a\u062f": 1868, "\u2581\u0646\u062a\u064a\u062c\u0629": 1869, "\u2581operational": 1870, "\u2581Tribunal": 1871, "\u2581sexual": 1872, "\u2581\u0627\u0644\u062d\u0627\u062c\u0629": 1873, "\u2581discussion": 1874, "ity": 1875, "\u2581Division": 1876, "\u2581\u0628\u0627\u0644\u0645": 1877, "\u2581\u062a\u0634\u064a\u0631": 1878, "\u2581\u0663": 1879, "\u0628\u0644": 1880, "\u2581\u0627\u0644\u0623\u0645\u0648\u0627\u0644": 1881, "\u2581\u0625\u0644": 1882, "\u2581\u0643\u062b\u064a\u0631\u0627": 1883, "\u2581funding": 1884, "\u2581\u0627\u0644\u0627\u0633\u062a\u0639\u0631\u0627\u0636": 1885, "\u2581statements": 1886, "\u2581Other": 1887, "\u2581Geneva": 1888, "\u2581\u2022": 1889, "\u2581few": 1890, "\u2581laws": 1891, "\u2581\u0644\u062a\u062d\u0642\u064a\u0642": 1892, "\u2581achieve": 1893, "\u2581form": 1894, "\u2581objectives": 1895, "\u2581\u0627\u0644\u0639\u0647\u062f": 1896, "\u2581please": 1897, "\u2581l": 1898, "\u2581\u0627\u064a": 1899, "\u2581Kingdom": 1900, "\u2581v": 1901, "\u2581annual": 1902, "\u2581Can": 1903, "\u2581\u0627\u0644\u0645\u0632\u064a\u062f": 1904, "\u2581\u0627\u0644\u0648\u0635\u0648\u0644": 1905, "\u2581play": 1906, "\u2581\u0623\u0644\u064a\u0633": 1907, "\u2581property": 1908, "\u2581strategies": 1909, "\u2581\u0628\u0647\u0630\u0647": 1910, "\u2581Please": 1911, "w": 1912, "\u2581mind": 1913, "\u2581\u0627\u0630\u0627": 1914, "\u2581\u0627\u0644\u0645\u0645\u062b\u0644": 1915, "\u2581self": 1916, "\u2581\u0627\u0633\u0645": 1917, "\u2581protect": 1918, "\u2581Democratic": 1919, "\u2581\u062a\u0637\u0644\u0628": 1920, "\u2581steps": 1921, "\u2581\u0627\u0644\u0633": 1922, "\u2581purpose": 1923, "\u2581Bank": 1924, "\u2581\u0627\u0644\u062a\u0646\u0633\u064a\u0642": 1925, "\u2581\u0627\u0644\u0648\u0643\u0627\u0644\u0627\u062a": 1926, "\u0639\u0629": 1927, "\u2581partners": 1928, "\u2581\u0627\u0644\u0627\u0633\u062a\u0631\u0627\u062a\u064a\u062c\u064a\u0629": 1929, "\u2581\u0627\u0644\u062c\u062f\u0648\u0644": 1930, "\u2581\u0627\u0644\u0633\u0646\u0648\u0627\u062a": 1931, "\u2581principle": 1932, "\u2581\u0645\u0634\u0627\u0631\u0643\u0629": 1933, "\u2581\u0625\u0636\u0627\u0641\u064a\u0629": 1934, "\u2581rate": 1935, "\u2581reduction": 1936, "\u258132": 1937, "ate": 1938, "\u2581close": 1939, "\u2581notes": 1940, "\u2581\u0644\u0644\u062a\u0646\u0645\u064a\u0629": 1941, "\u2581questions": 1942, "\u2581\u0644\u062f\u064a\u0646\u0627": 1943, "\u2581age": 1944, "\u2581Charter": 1945, "ive": 1946, "\u2581Agenda": 1947, "\u25811998": 1948, "\u2581organized": 1949, "\u2581promoting": 1950, "\u0640\u0640\u0640\u0640": 1951, "\u2581interest": 1952, "\u2581met": 1953, "\u258160": 1954, "\u2581\u0627\u0644\u062a\u0648\u0635\u064a\u0627\u062a": 1955, "\u2581death": 1956, "\u2581\u0644\u062c\u0645\u064a\u0639": 1957, "G": 1958, "\u2581\u0627\u0644\u0639\u0633\u0643\u0631\u064a\u0629": 1959, "\u2581implementing": 1960, "\u2581\u0628\u062f\u0648\u0646": 1961, "\u2581\u0628\u0643": 1962, "\u2581large": 1963, "\u2581(1)": 1964, "\u2581six": 1965, "\u2581\u063a": 1966, "\u2581adequate": 1967, "u": 1968, "\u2581text": 1969, "\u2581\u062a\u0643\u0627\u0644\u064a\u0641": 1970, "\u0644\u0629": 1971, "\u2581\u0641\u0639\u0644": 1972, "\u2581equal": 1973, "\u2581forms": 1974, "\u2581aimed": 1975, "\u2581performance": 1976, "\u064a\u062a": 1977, "\u2581plans": 1978, "\u2581Criminal": 1979, "\u0645\u062a": 1980, "\u2581approved": 1981, "\u2581greater": 1982, "\u2581g": 1983, "\u2581Central": 1984, "\u2581study": 1985, "li": 1986, "\u062c\u0644": 1987, "\u2581Panel": 1988, "ol": 1989, "\u2581issued": 1990, "\u2581\u0648\u0646": 1991, "\u2581previous": 1992, "\u2581\u0646\u0645\u0648\u0627": 1993, "\u064a\u0642": 1994, "\u2581\u062a\u0637\u0628\u064a\u0642": 1995, "ro": 1996, "\u2581Get": 1997, "\u2581\u0627\u0644\u0645\u0646\u0627\u062e": 1998, "\u2581\u0631\u0623\u064a": 1999, "\u2581Did": 2000, "\u2581proposals": 2001, "\u2581posts": 2002, "\u2581\u0634\u0624\u0648\u0646": 2003, "\u2581girl": 2004, "\u2581\u0627\u0644\u062c": 2005, "\u2581awareness": 2006, "\u2581communities": 2007, "\u2581\u062f\u0627\u0626\u0645\u0627": 2008, "\u2581\u0647\u0624\u0644\u0627\u0621": 2009, "\u2581\u0627\u0644\u0645\u062c\u0627\u0644": 2010, "\u062a\u0645": 2011, "\u2581\u062d\u0633\u0646": 2012, "\u2581\u062a\u0648\u0635\u064a\u0627\u062a": 2013, "\u2581\u0627\u0633\u062a": 2014, "\u2581joint": 2015, "\u2581facilitate": 2016, "\u2581energy": 2017, "\u2581\u0644\u0634\u0624\u0648\u0646": 2018, "\u2581arrangements": 2019, "level": 2020, "\u2581\u0625\u0633\u0631\u0627\u0626\u064a\u0644": 2021, "able": 2022, "/2": 2023, "\u2581essential": 2024, "\u2581\u0628\u0627\u0644\u062a\u0639\u0627\u0648\u0646": 2025, "ist": 2026, "\u2581supported": 2027, "\u2581\u0647\u0645": 2028, "\u2581\u0627\u0644\u062d\u0645\u0627\u064a\u0629": 2029, "\u0641\u0629": 2030, "\u2581pursuant": 2031, "\u2581Trade": 2032, "\u2581prepared": 2033, "\u2581\u0627\u0644\u062a\u0648\u062c\u064a\u0647\u064a\u0629": 2034, "\u2581\u0627\u0644\u0645\u062e\u062f\u0631\u0627\u062a": 2035, "\u2581carried": 2036, "\u258133": 2037, "\u2581\u0627\u0644\u0646\u062a\u0627\u0626\u062c": 2038, "\u2581building": 2039, "\u25811995": 2040, "\u2581feel": 2041, "\u2581investment": 2042, "\u258134": 2043, "tergovernmental": 2044, "\u2581\u0627\u0644\u062c\u0646\u0633": 2045, "\u2581stated": 2046, "\u2581knowledge": 2047, "\u2581\u0627\u0644\u0647\u062f\u0641": 2048, "\u0648\u0628": 2049, "\u2581Justice": 2050, "\u2581\u0644\u0636\u0645\u0627\u0646": 2051, "\u2581won": 2052, "\u2581assist": 2053, "\u2581old": 2054, "\u2581evidence": 2055, "\u2581\u062f\u0639": 2056, "\u2581show": 2057, "\u2581\u0627\u0644\u062d\u062f\u0648\u062f": 2058, "\u2581\u0627\u0644\u0637\u0627\u0642\u0629": 2059, "\u2581nothing": 2060, "\u2581coming": 2061, "\u2581\u0627\u0644\u062c\u062f\u064a\u062f": 2062, "\u2581\u0627\u0644\u0623\u0641\u0631\u064a\u0642\u064a": 2063, "ri": 2064, "\u2581\u0627\u0644\u062a\u0645\u0648\u064a\u0644": 2065, "\u2581\u0627\u0644\u0642\u0636\u0627\u0626\u064a\u0629": 2066, "\u2581\u0627\u0644\u0645\u062d\u0644\u064a": 2067, "\u2581Russian": 2068, "\u2581\u0627\u0644\u062e\u0627\u0631\u062c\u064a\u0629": 2069, "\u2581\u0627\u0644\u0628\u0631\u0648\u062a\u0648\u0643\u0648\u0644": 2070, "\u2581\u0627\u0644\u0633\u0646\u0629": 2071, "\u2581Millennium": 2072, "\u258136": 2073, "\u2581foreign": 2074, "\u062a\u0643\u0644\u0645": 2075, "\u258137": 2076, "\u2581\u0646\u0642\u0644": 2077, "\u2581\u0627\u0644\u0646\u0645\u0648": 2078, "\u2581basic": 2079, "\u2581Plan": 2080, "\u2581con": 2081, "\u2581understanding": 2082, "\u0627\u0642": 2083, "\u2581Federation": 2084, "\u2581\u0627\u0644\u062e\u062f\u0645\u0629": 2085, "\u2581\u0641\u062d\u0633\u0628": 2086, "\u2581Review": 2087, "\u0647\u0644": 2088, "\u2581OF": 2089, "\u2581\u0627\u0644\u0633\u0644\u0637\u0629": 2090, "\u25814.": 2091, "\u062a\u0647\u0645": 2092, "\u2581recommendation": 2093, "\u2581\u0627\u0644\u062f\u0627\u062e\u0644\u064a": 2094, "\u064a\u064a\u0646": 2095, "\u2581\u0643\u064a": 2096, "\u2581analysis": 2097, "\u2581came": 2098, "\u2581nature": 2099, "am": 2100, "\u2581\u062f\u064a": 2101, "\u2581\u0627\u0644\u0648\u0641\u0648\u062f": 2102, "\u2581power": 2103, "\u2581\u0644\u0644\u062c\u0645\u0639\u064a\u0629": 2104, "\u2581communication": 2105, "\u2581hope": 2106, "\u2581vote": 2107, "\u2581\u0627\u0644\u0631\u0627\u0628\u0639\u0629": 2108, "and": 2109, "\u0639\u062a": 2110, "\u2581potential": 2111, "\u2581\u0627\u0644\u062d\u0631\u0628": 2112, "\u2581hand": 2113, "\u2581\u0625\u0644\u064a": 2114, "\u2581undertaken": 2115, "\u2581cannot": 2116, "\u2581expected": 2117, "\u2581\u0623\u0648\u0631\u0648\u0628\u0627": 2118, "\u2581Asia": 2119, "\u2581\u0623\u064a\u0629": 2120, "\u2581informed": 2121, "\u2581\u0627\u0644\u0648\u0627\u0642\u0639": 2122, "\u2581\u0627\u0644\u062a\u0643\u0627\u0644\u064a\u0641": 2123, "\u2581\u0648\u0627\u0644\u062a\u0639\u0627\u0648\u0646": 2124, "\u2581\u0623\u062e": 2125, "\u2581often": 2126, "\u2581delegations": 2127, "\u2581\u0622\u0633\u064a\u0627": 2128, "\u2581state": 2129, "\u062c\u0631": 2130, "\u2581market": 2131, "\u2581income": 2132, "\u2581\u0642\u062f\u0645": 2133, "\u2581young": 2134, "\u2581\u0627\u0644\u062a\u0627\u0644\u064a": 2135, "\u2581offices": 2136, "\u2581enhance": 2137, "\u2581\u0645\u0633\u0627\u0626\u0644": 2138, "\u064a\u0645": 2139, "\u2581fundamental": 2140, "\u2581By": 2141, "\u2581author": 2142, "\u2581\u062f\u0648\u0644\u064a\u0629": 2143, "\u2581implemented": 2144, "\u2581aspects": 2145, "\u2581\u0625\u0642\u0627\u0645\u0629": 2146, "\u2581ensuring": 2147, "\u258145": 2148, "\u2581pay": 2149, "\u2581People": 2150, "\u2581\u0627\u0633\u062a\u0631\u0627\u062a\u064a\u062c\u064a\u0629": 2151, "ant": 2152, "\u2581\u0627\u0644\u0645\u064a\u0627\u0647": 2153, "\u2581\u0627\u0644\u0647\u064a\u0626\u0627\u062a": 2154, "\u2581proposal": 2155, "1": 2156, "ur": 2157, "\u2581experts": 2158, "\u2581\u0645\u0631\u0627\u0639\u0627\u0629": 2159, "\u2581Global": 2160, "\u2581once": 2161, "\u2581Implementation": 2162, "\u2581\u0648\u0628\u0646\u0627\u0621": 2163, "\u2581\u0627\u0644\u0639\u0645\u0644\u064a\u0627\u062a": 2164, "\u2581affected": 2165, "\u2581doesn": 2166, "\u2581\u0627\u0644\u0641\u0636\u0627\u0621": 2167, "\u2581car": 2168, "\u2581\u0627\u0644\u0645\u0627\u0644\u064a": 2169, "\u2581opportunity": 2170, "\u2581\u064a\u062d\u062f\u062b": 2171, "\u2581\u0642\u0644\u062a": 2172, "\u2581contribute": 2173, "\u2581\u0644\u0623\u063a\u0631\u0627\u0636": 2174, "\u2581court": 2175, "\u2581\u064a\u062a\u0639\u064a\u0646": 2176, "\u2581\u0644\u0646\u0627": 2177, "\u2581house": 2178, "During": 2179, "\u2581\u0648\u0633\u064a": 2180, "\u2581stop": 2181, "\u2581natural": 2182, "\u2581seen": 2183, "\u2581letter": 2184, "\u2581III": 2185, "\u2581\u0635": 2186, "\u2581guidelines": 2187, "\u2581\u0645\u0639\u0627\u0647\u062f\u0629": 2188, "\u2581\u0627\u0644\u0643\u0627\u0645\u0644": 2189, "\u2581lot": 2190, "\u2581\u0645\u0631": 2191, "\u2581\u0627\u0644\u0623\u0641\u0631\u064a\u0642\u064a\u0629": 2192, "\u2581\u0627\u0644\u062d\u0643\u0645": 2193, "\u2581evaluation": 2194, "\u2581\u0627\u0644\u062f\u0627\u0626\u0645": 2195, "\u2581\u0623\u0633\u062a\u0637\u064a\u0639": 2196, "\u2581conduct": 2197, "\u2581\u0627\u0644\u0627\u062a\u0641\u0627\u0642": 2198, "\u2581live": 2199, "\u2581Non": 2200, "\u2581\u0623\u0641\u0631\u0627\u062f": 2201, "\u2581connection": 2202, "\u2581Summit": 2203, "\u2581\u0648\u062b\u0627\u0626\u0642": 2204, "\u2581\u0627\u0644\u0645\u0639\u0627\u064a\u064a\u0631": 2205, "\u2581\u0642\u0627\u0645": 2206, "\u2581\u062a\u0634\u0643\u0644": 2207, "\u2581Under": 2208, "\u2581negotiations": 2209, "\u062a\u0627\u0646": 2210, "\u2581\u0646\u0635": 2211, "\u2581Annex": 2212, "\u2581facilities": 2213, "\u2581Israeli": 2214, "\u2581\u0631\u0627\u0626\u0639": 2215, "\u2581\u0627\u0644\u0642\u0645\u0629": 2216, "\u2581\u0627\u0644\u0647\u064a\u0626\u0629": 2217, "\u2581Cooperation": 2218, "\u2581fifty": 2219, "\u2581Management": 2220, "\u2581\u0627\u0644\u0645\u0641\u0648\u0636\u064a\u0629": 2221, "\u2581deal": 2222, "\u2581limited": 2223, "\u2581\u0627\u0644\u0631\u0639\u0627\u064a\u0629": 2224, "\u2581everything": 2225, "\u2581thus": 2226, "\u064a\u0643": 2227, "\u2581manner": 2228, "\u2581\u0627\u0644\u0628\u062d\u0631": 2229, "\u2581exchange": 2230, "\u2581\u0627\u0644\u0631\u063a": 2231, "\u2581\u0645\u0648\u0638\u0641\u064a": 2232, "\u258139": 2233, "\u2581\u0627\u0644\u062d\u0633\u0627\u0628\u0627\u062a": 2234, "\u2581individuals": 2235, "\u2581independent": 2236, "\u2581\u0623\u0648\u062f": 2237, "\u2581strategic": 2238, "\u2581\u062a\u0646\u0633\u064a\u0642": 2239, "\u2581understand": 2240, "\u2581authority": 2241, "\u2581\u0628\u0647\u062f\u0641": 2242, "\u2581\u0627\u0644\u0645\u062b\u0627\u0644": 2243, "\u2581goals": 2244, "\u2581financing": 2245, "\u2581freedom": 2246, "\u2581\u0623\u0646\u0646\u064a": 2247, "\u2581opportunities": 2248, "\u2581\u0635\u062f\u064a\u0642": 2249, "\u2581effect": 2250, "\u2581\u062b\u0644\u0627\u062b": 2251, ".6": 2252, "\u2581\u0627\u0644\u062a\u0627\u0628\u0639": 2253, "\u2581wanted": 2254, "\u2581hours": 2255, "\u2581\u0627\u0644\u062a\u0646\u0641\u064a\u0630\u064a\u0629": 2256, "\u2581hear": 2257, "\u2581\u0645\u0648\u0627\u0631\u062f": 2258, "is": 2259, "\u2581\u0628\u0635\u0641\u0629": 2260, "\u2581\u0627\u0644\u0645\u0633\u062a\u0642\u0628\u0644": 2261, "\u2581mechanism": 2262, "\u2581job": 2263, "\u2581\u0627\u0644\u0627\u062a\u0635\u0627\u0644": 2264, "\u2581\u0633\u064a\u0627\u0633\u0627\u062a": 2265, "\u2581experience": 2266, "\u2581\u0627\u0644\u0645\u0645\u0627\u0631\u0633\u0627\u062a": 2267, "\u2581forward": 2268, "\u2581refugees": 2269, "\u2581\u0648\u0627\u0644\u062e\u0645\u0633\u064a\u0646": 2270, "et": 2271, "\u2581\u0627\u0644\u0645\u062d\u0631\u0632": 2272, "\u2581Meeting": 2273, "\u2581room": 2274, "\u2581\u064a\u0639\u0646\u064a": 2275, "\u2581return": 2276, "\u25811994": 2277, "\u2581\u0648\u0637\u0646\u064a\u0629": 2278, "\u2581currently": 2279, "\u2581Code": 2280, "\u2581face": 2281, "\u2581\u0627\u0644\u0642\u0644\u0642": 2282, "\u2581remain": 2283, "\u2581contribution": 2284, "\u2581\u063a\u0631\u0641\u0629": 2285, "\u2581\u0648\u062d\u062f\u0629": 2286, "\u2581\u064a\u0632\u0627\u0644": 2287, "\u2581\u0627\u0644\u0623\u062c\u0644": 2288, "\u2581climate": 2289, "\u064a\u0633": 2290, "\u2581commitments": 2291, "\u062d\u064a": 2292, "\u2581\u0648\u0644\u0627\u064a\u0629": 2293, "\u2581Agreement": 2294, "\u2581\u0633\u064a\u062f\u064a": 2295, "\u0641\u062a": 2296, "\u2581\u062c\u0646\u064a\u0641": 2297, "\u2581recognized": 2298, "\u2581referred": 2299, "\u2581m": 2300, "\u2581\u0627\u0644\u0627\u0639\u062a\u0628\u0627\u0631": 2301, "\u2581\u0644\u0644\u0628\u0644\u062f\u0627\u0646": 2302, "\u2581w": 2303, "\u2581quality": 2304, "\u2581rural": 2305, "\\": 2306, "\u2581\u0641\u0639\u0644\u062a": 2307, "\u2581\u0627\u0644\u0627\u0646": 2308, "\u2581\u0641\u0631\u0635": 2309, "\u2581officials": 2310, "\u2581\u0627\u0644\u0642\u0648\u0627\u062a": 2311, "\u2581Europe": 2312, "\u2581functions": 2313, "\u0648\u0642": 2314, "\u2581\u0628\u0627": 2315, "\u258148": 2316, "\u2581brought": 2317, "\u2581\u0642\u0631\u0627\u0631\u0627\u062a": 2318, "\u2581transfer": 2319, "ary": 2320, "\u2581\u0627\u0644\u062f\u0627\u0626\u0645\u0629": 2321, "\u2581recommends": 2322, "\u2581alia": 2323, "\u2581\u0627\u0644\u0643\u0648\u0646\u063a\u0648": 2324, "\u2581less": 2325, "\u2581crimes": 2326, "\u2581\u0627\u0644\u0646\u0642\u0644": 2327, "\u2581concerns": 2328, "\u2581submit": 2329, "\u2581\u0627\u0644\u0637\u0644\u0628": 2330, "\u2581processes": 2331, "\u2581\u0644\u0644\u063a\u0627\u064a\u0629": 2332, "\u2581Right": 2333, "\u2581\u0631\u0635\u062f": 2334, "\u2581st": 2335, "\u2581\u0627\u0644\u0645\u062d\u062f\u062f\u0629": 2336, "\u2581labour": 2337, "\u2581\u0627\u0644\u0642\u0648\u0627\u0646\u064a\u0646": 2338, "\u2581\u0628\u064a\u062f": 2339, "\u2581\u0623\u0645\u0648\u0631": 2340, "\u0627\u0637": 2341, "\u0622": 2342, "\u2581ye": 2343, "\u2581enough": 2344, "\u2581\u0645\u0624\u0633\u0633\u0627\u062a": 2345, "\u2581\u0627\u0644\u0645\u0642\u0631\u0631\u0629": 2346, "\u2581\u0645\u0634\u0643\u0644\u0629": 2347, "\u2581\u0627\u0644\u0628": 2348, "\u2581\u0627\u0644\u0645\u0627\u0636\u064a": 2349, "\u2581happened": 2350, "\u2581later": 2351, "\u2581\u064a\u0634\u0643\u0644": 2352, "\u25811997": 2353, "\u2581mo": 2354, "\u2581Then": 2355, "\u2581\u0627\u0644\u0633\u0627\u062f\u0633\u0629": 2356, "\u2581increasing": 2357, "\u2581head": 2358, "\u2581pre": 2359, ".4": 2360, "\u2581t": 2361, "\u2581below": 2362, "\u2581heard": 2363, "\u2581k": 2364, "\u2581\u0627\u0644\u0642\u0627\u0646\u0648\u0646\u064a": 2365, "N": 2366, "\u2581\u064a\u0645\u0643\u0646\u0646\u064a": 2367, "\u2581final": 2368, "\u2581drug": 2369, "\u2581former": 2370, "\u2581\u0644\u0645\u062f\u0629": 2371, "\u2581workers": 2372, "\u2581articles": 2373, "\u2581\u0648\u0625\u0639\u0627\u062f\u0629": 2374, "\u2581\u0627\u0644\u062a\u0642\u064a\u064a\u0645": 2375, "\u2581\u0634\u0643\u0644": 2376, "\u2581\u0647\u064a\u0626\u0629": 2377, "\u25815.": 2378, "\u2581\u0648\u062a\u0646\u0641\u064a\u0630": 2379, "\u2581\u0627\u0644\u0645\u0648\u0636\u0648\u0639": 2380, "\u2581Protection": 2381, "\u2581exercise": 2382, "\u2581\u0639\u0631\u0636": 2383, "\u2581\u0644\u0644\u0645\u0631\u0623\u0629": 2384, "\u2581\u0645\u062e\u062a\u0644\u0641\u0629": 2385, "\u2581detention": 2386, "\u2581\u0645\u0639\u0638\u0645": 2387, "\u2581mother": 2388, "\u258138": 2389, "\u2581reference": 2390, "\u2581\u0631\u0633\u0645\u064a\u0629": 2391, "\u2581\u0627\u0644\u0628\u0631\u0646\u0627\u0645\u062c\u064a\u0629": 2392, "\u2581Forum": 2393, "\u2581\u0645\u062d\u0643\u0645\u0629": 2394, "\u062d\u0633\u0646": 2395, "\u062d\u0627\u0621": 2396, "\u2581\u0646\u064a\u0648\u064a\u0648\u0631\u0643": 2397, "\u2581asked": 2398, "\u2581\u062a\u0642\u0631\u064a\u0631\u0627": 2399, "\u2581Public": 2400, "\u2581\u062a\u0637\u0648\u064a\u0631": 2401, "\u0628\u062a": 2402, "\u2581\u0627\u0644\u0628\u064a\u0626\u064a\u0629": 2403, "\u2581bad": 2404, "\u2581\u0627\u0644\u062c\u0647\u0627\u062a": 2405, "\u0628\u0631": 2406, "\u2581\u0633\u0648\u0627\u0621": 2407, "la": 2408, "\u2581changes": 2409, "\u2581\u0644\u0645\u0646\u0639": 2410, "ies": 2411, "\u0642\u062a": 2412, "de": 2413, "\u2581\u0627\u0644\u0633\u064a\u0627\u0633\u064a": 2414, "\u0647\u0630\u0627": 2415, "\u2581\u0648\u0623\u0646\u0627": 2416, "ure": 2417, "\u2581\u0628\u0627\u0633\u0645": 2418, "ne": 2419, "\u2581start": 2420, "\u2581remains": 2421, "\u2581overall": 2422, "\u2581territory": 2423, "\u2581\u0627\u0644\u0639\u0627\u062f\u064a\u0629": 2424, "\u064a\u0628": 2425, "\u2581\u0627\u0644\u0633\u0648\u062f\u0627\u0646": 2426, "\u2581\u0627\u0644\u0645\u0631\u0643\u0632": 2427, "\u2581presented": 2428, "\u2581soon": 2429, "\u2581Co": 2430, "\u2581\u064a\u062c\u0648\u0632": 2431, "\u2581\u0645\u0639\u0627\u0644\u062c\u0629": 2432, "\u2581First": 2433, "\u2581\u0628\u064a\u0646\u0645\u0627": 2434, "\u2581\u0627\u0644\u0637\u0628\u064a\u0639\u064a\u0629": 2435, "\u2581\u0648\u0633\u062a": 2436, "\u2581crisis": 2437, "\u2581u": 2438, "\u2581move": 2439, "\u258142": 2440, "\u2581Sudan": 2441, "\u2581benefits": 2442, "\u2581\u0632": 2443, "\u2581UNCTAD": 2444, "\u2581Institute": 2445, "\u2581\u0627\u0644\u0622\u0631\u0627\u0621": 2446, "\u2581\u0645\u062c\u0645\u0648\u0639": 2447, "\u2581items": 2448, "\u2581wrong": 2449, "\u2581\u0627\u0644\u0645\u062a\u0627\u062d\u0629": 2450, "\u2581\u0627\u0644\u0645\u062a\u0639\u062f\u062f\u0629": 2451, "\u2581\u0627\u0644\u0634\u062e\u0635": 2452, "\u2581multilateral": 2453, "\u062f\u064a\u0646": 2454, "\u2581\u0627\u0644\u0639\u062f\u0644": 2455, "\u2581Unit": 2456, "AIDS": 2457, "v": 2458, "\u2581\u0627\u0644\u062a\u0642\u0646\u064a": 2459, "\u2581times": 2460, "\u2581claims": 2461, "me": 2462, "\u2581\u0637": 2463, "\u2581conference": 2464, "\u2581\u0648\u064a\u062c\u0628": 2465, "\u2581communications": 2466, "\u2581\u0648\u0638\u064a\u0641\u0629": 2467, "\u2581preparation": 2468, "\u2581\u0644\u0644\u0623\u0644\u0641\u064a\u0629": 2469, "\u2581team": 2470, "\u2581trying": 2471, "\u2581Support": 2472, "\u2581officers": 2473, "\u2581lead": 2474, "\u2581father": 2475, "O": 2476, "\u2581outside": 2477, "\u2581\u0627\u062c\u062a\u0645\u0627\u0639\u0627\u062a": 2478, "\u2581media": 2479, "\u2581\u0627\u0644\u0642\u0648\u0629": 2480, "5": 2481, "\u2581\u0627\u0644\u0623\u0641\u0631\u0627\u062f": 2482, "\u0627\u0635": 2483, "\u25811996": 2484, "\u2581al": 2485, "\u2581\u0627\u0644\u0627\u0633\u062a\u062b\u0645\u0627\u0631": 2486, "\u2581\u0627\u0644\u0645\u0642\u062a\u0631\u062d\u0629": 2487, "\u2581kill": 2488, "\u2581provisional": 2489, "\u2581purposes": 2490, "\u2581\u0648\u062a\u0642\u062f\u064a\u0645": 2491, "\u2581\u0627\u0644\u062e": 2492, "\u2581\u0645\u0624\u062e\u0631\u0627": 2493, "\u2581medical": 2494, "\u2581en": 2495, "art": 2496, "\u2581informal": 2497, "\u2581identified": 2498, "\u2581\u0648\u0628\u0639\u062f": 2499, "\u2581\u0645\u0645\u0643\u0646": 2500, "\u2581sub": 2501, "\u2581value": 2502, "\u2581\u0645\u0645\u0627\u0631\u0633\u0629": 2503, "\u2581\u062c\u064a\u0645": 2504, "\u258141": 2505, "\u2581Section": 2506, "\u2581\u062a\u0643\u0646": 2507, "\u2581\u0627\u0644\u0648\u0627\u0631\u062f": 2508, "\u2581Crime": 2509, "\u2581\u0646\u0647\u062c": 2510, "\u2581\u0646\u0641\u0633\u0647\u0627": 2511, "\u2581participate": 2512, "R": 2513, "\u2581\u062a\u0642\u0648\u0644": 2514, "\u2581positive": 2515, "\u2581outcome": 2516, "\u258147": 2517, "\u2581fight": 2518, "\u2581Of": 2519, "\u2581conducted": 2520, "\u2581either": 2521, "\u2581\u0627\u0644\u062c\u0646\u0633\u064a": 2522, "\u2581\u0627\u0644\u0625\u0637\u0627\u0631": 2523, "\u2581\u0642\u062f\u0631\u0629": 2524, "\u2581\u062f\u0631\u0627\u0633\u0629": 2525, "\u2581integrated": 2526, "\u2581Because": 2527, "\u2581\u0648\u0639\u062f\u0645": 2528, "\u2581sessions": 2529, "\u2581fine": 2530, "\u2581\u0627\u0644\u0648\u0636\u0639": 2531, "\u258151": 2532, "\u2581Since": 2533, "\u2581\u0642\u0631\u0627\u0631\u0647\u0627": 2534, "\u2581Regional": 2535, "\u2581i": 2536, "\u2581\u0642\u0637\u0627\u0639": 2537, "\u2581\u0644\u062f\u0639\u0645": 2538, "\u2581Foreign": 2539, "\u2581paragraphs": 2540, "\u2581substantive": 2541, "\u2581sent": 2542, "ion": 2543, "\u2581\u0627\u0644\u0623\u0633\u0631\u0629": 2544, "\u2581compliance": 2545, "\u2581views": 2546, "\u2581direct": 2547, "\u2581\u0641\u0639\u0627\u0644\u0629": 2548, "\u2581Congo": 2549, "\u2581killed": 2550, "\u2581entities": 2551, "\u2581\u0646\u0634\u0631": 2552, "\u2581low": 2553, "\u2581bit": 2554, "\u2581\u0627\u0644\u0645\u062c\u0627\u0644\u0627\u062a": 2555, "\u2581share": 2556, "\u2581\u0642\u0627\u0645\u062a": 2557, "year": 2558, "\u0648\u0647": 2559, "\u2581\u0627\u0644\u062d\u0627\u0644\u064a": 2560, "\u2581\u0627\u0644\u0645\u0642\u062f\u0645": 2561, "\u0630\u0631": 2562, "\u2581\u0642\u062a\u0644": 2563, "\u258144": 2564, "\u2581judicial": 2565, "\u2581\u0627\u0644\u0633\u0627\u0628\u0642": 2566, "\u2581\u0642\u0648\u0629": 2567, "\u0639\u0648\u062f": 2568, "\u2581torture": 2569, "\u2581\u0627\u0644\u0645\u0633\u0624\u0648\u0644\u064a\u0629": 2570, "\u2581\u0623\u0628\u064a": 2571, "\u064a\u0626": 2572, "\u2581Health": 2573, "\u2581internal": 2574, "\u2581\u0627\u0644\u0646\u0648\u0648\u064a": 2575, "\u2581\u0627\u0644\u0645\u0627\u0644": 2576, "\u0628\u0627": 2577, "\u2581\u0627\u0644\u062c\u0645\u064a\u0639": 2578, "\u2581\u062a\u0634\u062c\u064a\u0639": 2579, "\u2581Agency": 2580, "\u2581\u0627\u0644\u062c\u0631\u0627\u0626\u0645": 2581, "\"\u060c": 2582, "\u0643\u064a": 2583, "\u2581\u0634\u0628\u0643\u0629": 2584, "\u0631\u0627\u062a": 2585, "\u2581achieved": 2586, "\u2581talking": 2587, "\u2581using": 2588, "\u2581Environment": 2589, "\u2581\u0645\u0646\u0647\u0645": 2590, "\u2581\u0627\u0644\u0641\u0631\u0639\u064a": 2591, "vi": 2592, "\u2581indicated": 2593, "\u0644\u0643": 2594, "\u2581\u062a\u0648\u062c\u062f": 2595, "\u2581Canada": 2596, "\u2581dead": 2597, "\u2581institutional": 2598, "\u2581\u0627\u0644\u0642\u062f\u0631\u0629": 2599, "\u2581Japan": 2600, "\u2581circumstances": 2601, "os": 2602, "te": 2603, "co": 2604, "related": 2605, "\u2581\u0628\u0637\u0631\u064a\u0642\u0629": 2606, "\u2581UNICEF": 2607, "\u258143": 2608, "\u2581\u0648\u0628\u0631\u0646\u0627\u0645\u062c": 2609, "\u2581sh": 2610, "\u2581big": 2611, "\u2581Constitution": 2612, "\u2581ask": 2613, "\u2581\u0642\u0636\u0627\u064a\u0627": 2614, "\u2581\u0648\u0641\u062f": 2615, "\u258149": 2616, "\u2581De": 2617, "\u2581\u0623\u0635\u062d\u0627\u0628": 2618, "\u2581\u0627\u0644\u0625\u0639\u0644\u0627\u0646": 2619, "\u2581\u0627\u0644\u0645\u0646\u0627\u0633\u0628": 2620, "\u2581went": 2621, "\u2581\u0622\u0644\u064a\u0629": 2622, "\u2581\u0645\u0630\u0643\u0631\u0629": 2623, "\u2581someone": 2624, "\u2581woman": 2625, "\u2581\u0627\u0644\u0641\u0644\u0633\u0637\u064a\u0646\u064a\u0629": 2626, "one": 2627, "\u2581hold": 2628, "\u2581\u0645\u0639\u064a\u0646\u0629": 2629, "\u2581\u0642\u064a\u062f": 2630, "\u2581primary": 2631, "\u2581\u0627\u0644\u0638\u0631\u0648\u0641": 2632, "\u2581safety": 2633, "\u2581enable": 2634, "\u2581\u0645\u0646\u0627\u0637\u0642": 2635, "\u2581itself": 2636, "\u2581\u0627\u0644\u062a\u0639\u0630\u064a\u0628": 2637, "\u2581\u0628\u0623\u064a": 2638, "\u2581\u0627\u0644\u0637\u0631\u064a\u0642": 2639, "\u2581\u0642\u0636\u064a\u0629": 2640, "\u2581enforcement": 2641, "\u2581\u0627\u0644\u0623\u0642\u0644": 2642, "\u2581\u0627\u0644\u0628\u0627\u0628": 2643, "\u2581\u0627\u0644\u0644": 2644, "\u2581\u0627\u0644\u0631\u0626\u064a\u0633\u064a": 2645, "\u0642\u062f": 2646, "\u2581\u062f\u0648\u0631\u0629": 2647, "\u2581\u0627\u0644\u0625\u0646\u0633\u0627\u0646\u064a": 2648, "\u2581integration": 2649, "son": 2650, "\u2581\u062a\u0646\u0638\u0631": 2651, "\u258146": 2652, "\u2581\u0627\u0644\u0631\u0648\u0633\u064a": 2653, "\u2581\u0641\u0625\u0646\u0647": 2654, "\u2581calls": 2655, "\u2581ways": 2656, "\u2581\u0648\u0645\u0646\u0638\u0645\u0629": 2657, "\u2581Political": 2658, "\u2581ongoing": 2659, "\u2581\u0636\u0648\u0621": 2660, "\u2581\u0645\u0639\u0627": 2661, "ra": 2662, "\u0641\u0631": 2663, "Rev": 2664, "\u2581\u0645\u0632\u064a\u062f": 2665, "\u2581\u0627\u0644\u062d\u0648\u0627\u0631": 2666, "ance": 2667, "\u2581\u0627\u0644\u0645\u0639\u0627\u0647\u062f\u0629": 2668, "\u2581\u0628\u062d\u0642": 2669, "\u2581Children": 2670, "\u2581(2)": 2671, "\u2581\u0623\u0648\u0644": 2672, "\u2581Peace": 2673, ".7": 2674, "\u2581\u0627\u0644\u062a\u0648\u0635\u0644": 2675, "\u2581\u0628\u0625": 2676, "\u2581looking": 2677, "\u2581\u0627\u0644\u0645\u0645\u0644\u0643\u0629": 2678, "\u2581stay": 2679, "ma": 2680, "\u2581\u0645\u0642\u0627\u0628\u0644": 2681, "\u2581\u064a\u0634\u0645\u0644": 2682, "\u2581\u0627\u0644\u0648\u0643\u0627\u0644\u0629": 2683, "\u2581\u0645\u0639\u062f\u0644": 2684, "\u2581resource": 2685, "\u2581\u0627\u0644\u062c\u0645\u0647\u0648\u0631\u064a\u0629": 2686, "\u2581claim": 2687, "\u2581\u0627\u0644\u0645\u062f\u0646\u064a\u064a\u0646": 2688, "\u2581\u0641\u0647\u0645": 2689, "ow": 2690, "\u0639\u0644\u0649": 2691, "\u25816.": 2692, "\u2581\u0627\u0646\u062a\u0634\u0627\u0631": 2693, "\u2581objective": 2694, "\u2581infrastructure": 2695, "\u0648\u062a": 2696, "\u2581effectively": 2697, "\u2581\u0627\u0644\u0645\u062c\u0645\u0648\u0639\u0629": 2698, "\u2581whose": 2699, "\u2581Any": 2700, "Y": 2701, "\u2581expert": 2702, "\u2581\u062a\u0633\u062a\u0637\u064a\u0639": 2703, "\u2581allow": 2704, "\u2581\u0622\u0644\u064a\u0627\u062a": 2705, "\u2581families": 2706, "\u2581proceedings": 2707, "\u2581\u0633\u062a\u0643\u0648\u0646": 2708, "\u2581\u0645\u0634\u0627\u0648\u0631\u0627\u062a": 2709, "\u2581\u062a\u0648\u0627\u0641\u0642": 2710, "\u2581\u062a\u0624\u0643\u062f": 2711, "\u2581material": 2712, "\u2581idea": 2713, "\u2581\u0644\u0643\u0645": 2714, "\u258177": 2715, "\u2581\u0645\u0648\u062c\u0647\u0629": 2716, "\u2581require": 2717, "\u2581else": 2718, "\u2581Party": 2719, "\u2581situations": 2720, "\u2581economy": 2721, "ca": 2722, "\u2581regions": 2723, "\u2581effort": 2724, "\u2581\u0648\u0628\u062e\u0627\u0635\u0629": 2725, "\u2581\u0644\u062a\u0642\u062f\u064a\u0645": 2726, "\u2581administration": 2727, "\u2581ago": 2728, "\u2581\u0627\u0644\u062d\u0642\u064a\u0642\u0629": 2729, "\u2581\u0627\u0644\u0641\u0646\u064a\u0629": 2730, "\u062d\u0636\u0631": 2731, "\u2581strong": 2732, "\u2581\u0641\u0639\u0627\u0644\u064a\u0629": 2733, "\u2581Dr": 2734, "\u2581son": 2735, "\u2581\u0627\u0644\u062f\u0641\u0627\u0639": 2736, "\u2581\u0627\u0644\u0628\u062d\u0631\u064a\u0629": 2737, "\u2581Force": 2738, "\u2581\u062a\u0646\u0645\u064a\u0629": 2739, "\u0660\u0660": 2740, "\u2581combat": 2741, "\u2581centres": 2742, "\u2581\u0627\u0644\u0645\u062a": 2743, "\u2581\u0645\u062c\u0631\u062f": 2744, "\u2581Here": 2745, "\u2581\u0627\u0644\u0641": 2746, "\u2581\u0623\u0646\u0646\u0627": 2747, "\u2581\u0648\u062d\u0645\u0627\u064a\u0629": 2748, "\u2581revised": 2749, "\u2581\u0642\u0648\u0627\u0639\u062f": 2750, "im": 2751, "\u2581\u0627\u0644\u0645\u0639\u0646\u0648\u0646": 2752, "\u2581\u0645\u0628\u0627\u062f\u0626": 2753, "\u2581reduce": 2754, "\u2581sound": 2755, "\u2581\u0627\u0644\u062c\u0646\u0633\u064a\u0629": 2756, "\u2581\u0648\u0644\u064a\u0633": 2757, "\u2581\u0648\u0646\u062d\u0646": 2758, "\u2581Recalling": 2759, "\u2581effects": 2760, "\u2581\u0645\u0648\u0636\u0648\u0639": 2761, "\u2581\u0648\u0643\u0627\u0646\u062a": 2762, "\u2581civilian": 2763, "\u062f\u0627": 2764, "4": 2765, "\u2581\u0627\u0644\u0631\u0627\u0628\u0639": 2766, "\u2581themselves": 2767, "\u2581\u0648\u0644\u0644": 2768, "\u2581\u0646\u0638\u0645": 2769, "\u0627\u0626\u064a": 2770, "\u0639\u064a\u0646": 2771, "\u2581\u0627\u0644\u062e\u0637\u0629": 2772, "\u0631\u0649": 2773, "\u25811990": 2774, "\u2581actually": 2775, "by": 2776, "\u2581\u062a\u0627\u0631\u064a\u062e": 2777, "\u2581American": 2778, "\u2581\u0623\u0647\u062f\u0627\u0641": 2779, "\u25811993": 2780, "\u2581Such": 2781, "\u0639\u0646\u064a": 2782, "\u2581\u0627\u0644\u0623\u0644\u063a\u0627\u0645": 2783, "x": 2784, "\u2581El": 2785, "\u2581\u0627\u0644\u0634\u0639\u0628": 2786, "\u2581term": 2787, "\u2581\u0627\u0644\u0623\u0647\u0645\u064a\u0629": 2788, "\u2581\u0627\u0644\u0633\u064a\u0627\u0633\u0629": 2789, "\u2581throughout": 2790, "\u2581\u0628\u0643\u0644": 2791, "\u2581\u0627\u0644\u0623\u0645\u0646\u064a\u0629": 2792, "\u2581thank": 2793, "\u2581Wa": 2794, "\u2581dis": 2795, "\u2581\u062d\u0627\u062c\u0629": 2796, "\u2581\u0628\u064a\u0627\u0646": 2797, "\u2581\u0645\u0639\u064a": 2798, "tion": 2799, "\u2581table": 2800, "um": 2801, "\u0631\u0628": 2802, "\u2581saw": 2803, "\u2581governance": 2804, "\u2581getting": 2805, "\u2581\u0627\u0644\u0639\u0644\u064a\u0627": 2806, "\u2581\u0627\u0644\u0623\u062d\u0643\u0627\u0645": 2807, "\u2581hell": 2808, "\u2581UNEP": 2809, "ad": 2810, "\u2581\u0644\u0644\u0633\u0643\u0627\u0646": 2811, "\u2581active": 2812, "\u2581Also": 2813, "\u0631\u064a\u0646": 2814, "\u2581\u0627\u0644\u0645\u0642\u0631": 2815, "\u2581Afghanistan": 2816, "\u2581\u0627\u0644\u062a\u0631\u0643\u064a\u0632": 2817, "\u2581\u0627\u0644\u0645\u0643\u0627\u0646": 2818, "\u2581\u0648\u0627\u0644\u0639\u0634\u0631\u064a\u0646": 2819, "\u2581\u0638\u0644": 2820, "\u2581higher": 2821, "\u2581\u0627\u0644\u0631\u062c\u0627\u0644": 2822, "\u2581\u0645\u0624\u0631\u062e\u0629": 2823, "\u0631\u064a": 2824, "\u2581\u0627\u0644\u0645\u0624\u062a\u0645\u0631\u0627\u062a": 2825, "\u2581benefit": 2826, "\u2581\u0627\u0644\u0639\u062f\u0627\u0644\u0629": 2827, "\u062e\u0628\u0631": 2828, "\u2581\u0630\u0648\u064a": 2829, "\u2581poor": 2830, "\u2581\u0643\u0641\u0627\u0644\u0629": 2831, "\u2581side": 2832, "\u2581www": 2833, "\u0627\u0630": 2834, "\u2581\u0625\u0630\u0646": 2835, "\u2581\u062c\u0631\u0649": 2836, "nd": 2837, "\u2581\u0627\u0644\u0623\u0648\u0644\u0648\u064a\u0629": 2838, "\u2581debt": 2839, "\u2581\u062e\u0637": 2840, "\u2581\u0646\u0638\u0631\u0627": 2841, "\u2581\u0641\u0631\u0635\u0629": 2842, "\u258153": 2843, "\u0627\u0632": 2844, "\u2581\u0627\u0644\u0639\u0646\u0635\u0631\u064a": 2845, "\u2581elements": 2846, "\u2581\u0627\u0644\u062e\u0627\u0631\u062c\u064a": 2847, "\u2581\u062d\u0644\u0642\u0629": 2848, "\u2581\u062a\u0636\u0637\u0644\u0639": 2849, "\u2581\u064a\u0639\u0645\u0644": 2850, "\u258158": 2851, "\u2581\u0627\u0644\u0648\u0638\u0627\u0626\u0641": 2852, "\u25810": 2853, "\u2581initiative": 2854, "\u0648\u0639": 2855, "\u2581\u0627\u0633\u062a\u0645\u0631\u0627\u0631": 2856, "\u2581prior": 2857, "\u2581operation": 2858, "\u2581\u0627\u0644\u062a\u062d\u0642\u064a\u0642": 2859, "\u2581\u0627\u0644\u0639\u0627\u0645\u0644\u0629": 2860, "age": 2861, "\u2581\u0627\u0644\u0646\u0627\u0631": 2862, "\u2581France": 2863, "\u2581\u0623\u0645\u0631\u064a\u0643\u0627": 2864, "\u2581\u062a\u0623\u0643\u064a\u062f": 2865, "\u2581\u0644\u062f\u064a\u0647\u0627": 2866, "\u2581\u0627\u0644\u0646\u0635": 2867, "\u00e9": 2868, "\u258155": 2869, "\u2581\u0647\u064a\u0626\u0627\u062a": 2870, "\u2581Services": 2871, "\u2581improving": 2872, "\u2581sources": 2873, "\u2581estimated": 2874, "\u2581ex": 2875, "\u2581\u0644\u062d\u0645\u0627\u064a\u0629": 2876, "\u2581critical": 2877, "\u2581y": 2878, "\u2581rather": 2879, "ence": 2880, "\u0631\u0641": 2881, "\u2581\u0627\u0644\u0634\u0628\u0627\u0628": 2882, "\u2581\u0625\u0635\u0644\u0627\u062d": 2883, "\u2581\u0646\u0638\u0631": 2884, "\u258152": 2885, "\u2581\u0627\u0644\u0627\u0642\u062a\u0635\u0627\u062f": 2886, "\u2581\u0648\u0633\u0648\u0641": 2887, "\u2581discussions": 2888, "\u2581\u0625\u064a\u062c\u0627\u062f": 2889, "\u2581\u0627\u0644\u0645\u0624\u0642\u062a\u0629": 2890, "\u2581Countries": 2891, "\u2581\u0648\u0627\u0644\u062f": 2892, "\u2581\u0623\u0628\u062f\u0627": 2893, "\u2581invited": 2894, "W": 2895, "\u2581\u0648\u0625\u0630\u0627": 2896, "\u2581\u0645\u0646\u0638\u0645\u0627\u062a": 2897, "\u2581\u0622\u062b\u0627\u0631": 2898, "\u2581\u0648\u0627\u0644\u0630\u064a": 2899, "\u2581\u0628\u062d\u0644\u0648\u0644": 2900, "\u2581Korea": 2901, ".8": 2902, "\u2581\u0628\u064a\u0646\u0647\u0627": 2903, "\u2581Caribbean": 2904, "\u2581\u0627\u0644\u0647\u0627\u062f\u0626": 2905, "\u2581welcomed": 2906, "The": 2907, "responsibilities": 2908, "\u2581Be": 2909, "\u2581reason": 2910, "\u2581difficult": 2911, "\u25812005.": 2912, "\u2581travel": 2913, "\u2581\u0642\u0627\u0639\u062f\u0629": 2914, "\u2581Civil": 2915, "\u2581\u0645\u0646\u062d": 2916, "\u2581India": 2917, "\u2581\u0627\u0644\u0623\u0648\u0631\u0648\u0628\u064a\u0629": 2918, "\u2581Great": 2919, "\u2581\u0648\u0647\u0630\u0647": 2920, "\u2581\u0627\u0644\u0627\u0644\u062a\u0632\u0627\u0645\u0627\u062a": 2921, "\u2581\u0628\u0648\u0635\u0641\u0647\u0627": 2922, "\u2581\u064a\u062a": 2923, "\u2581\u0627\u0644\u062f\u0648\u0644\u064a\u064a\u0646": 2924, "\u2581wait": 2925, "\u2581sectors": 2926, "\u25811,": 2927, "ty": 2928, "\u2581\u0627\u0644\u063a": 2929, "\u2581\u0645\u062a\u0627\u0628\u0639\u0629": 2930, "\u2581\u0644\u0644\u0642\u0627\u0646\u0648\u0646": 2931, "\u2581developments": 2932, "\u2581abuse": 2933, "\u2581Discrimination": 2934, "\u2581paper": 2935, "\u2581\u0633\u0639\u064a\u062f": 2936, "\u2581\u0648\u0625\u062f\u0627\u0631\u0629": 2937, "el": 2938, "\u2581\u062c\u0645\u064a\u0639\u0627": 2939, "\u2581\u062a\u0643\u0646\u0648\u0644\u0648\u062c\u064a\u0627": 2940, "\u0648\u0641": 2941, "\u2581\u0627\u0644\u0623\u0645\u0648\u0631": 2942, "\u2581rates": 2943, "\u0635\u062f\u0642": 2944, "\u2581\u0639\u0627\u0645\u0627": 2945, "ke": 2946, "ts": 2947, "\u2581half": 2948, "\u2581debate": 2949, "\u2581\u0627\u0644\u0637\u0648\u0627\u0631\u0626": 2950, "\u2581interests": 2951, "ny": 2952, "\u2581\u0627\u0644\u0642\u0636\u064a\u0629": 2953, "\u2581\u0645\u0631\u0627\u0643\u0632": 2954, "\u0645\u0631": 2955, "\u2581priorities": 2956, "\u2581\u0627\u0644\u0627\u0642\u062a\u0636\u0627\u0621": 2957, "\u2581guidance": 2958, "\u2581\u0648\u0648\u0641\u0642\u0627": 2959, "\u2581assets": 2960, "\u2581late": 2961, "\u2581trust": 2962, "\u2581\u0627\u0633": 2963, "\u2581ready": 2964, "\u2581\u0627\u0644\u0643\u0648\u0627\u0631\u062b": 2965, "\u2581participants": 2966, "llo": 2967, "\u2581\u0643\u0648\u0631\u064a\u0627": 2968, "op": 2969, "\u2581\u062a\u0642\u0631\u0631": 2970, "\u2581h": 2971, "\u2581\u062a\u0644\u0627\u062d\u0638": 2972, "\u2581words": 2973, "\u2581\u0627\u0644\u0645\u0646\u0627\u0642\u0634\u0629": 2974, "ian": 2975, "\u2581effectiveness": 2976, "mo": 2977, "\u2581appreciation": 2978, "\u062e\u062a": 2979, "\u2581\u0633\u0628\u0644": 2980, "6": 2981, "\u2581Child": 2982, "\u0627\u0626\u0644": 2983, "\u2581hard": 2984, "\u2581\u0628\u062f\u0648\u0631": 2985, "\u0633\u0648\u0646": 2986, "\u2581\u062a\u0648\u0642\u0641": 2987, "\u25817.": 2988, "\u2581\u0627\u0644\u0645\u0646\u0627\u0633\u0628\u0629": 2989, "\u2581According": 2990, "\u2581\u0644\u0623\u064a": 2991, "\u2581\u0648\u0627\u0644\u0627\u062a\u0635\u0627\u0644\u0627\u062a": 2992, "\u2581Administrative": 2993, "\u2581\u0648\u062b\u064a\u0642\u0629": 2994, "\u2581safe": 2995, "\u2581regulations": 2996, "\u2581\u0641\u0627\u0644": 2997, "\u2581\u0648\u0639\u0644\u0627\u0648\u0629": 2998, "\u2581\u0627\u0644\u0627\u0644\u062a\u0632\u0627\u0645": 2999, "\u2581peaceful": 3000, "\u2581\u0631\u0623\u0633": 3001, "\u062d\u062a": 3002, "\u2581introduced": 3003, "\u2581\u0627\u0644\u0623\u0645": 3004, "\u2581specialized": 3005, "\u2581\u062a\u0648\u0641\u0631": 3006, "lo": 3007, "\u2581range": 3008, "\u0642\u0629": 3009, "\u2581\u064a\u0624\u062f\u064a": 3010, "\u258165": 3011, "V": 3012, "\u2581threat": 3013, "\u2581try": 3014, "\u2581\u062a\u063a\u064a\u0631": 3015, "\u2581comments": 3016, "\u2581\u0627\u0644\u0645\u0634\u0627\u0643\u0644": 3017, "\u2581\u0627\u0644\u0644\u0627\u062a\u064a\u0646\u064a\u0629": 3018, "\u2581\u0628\u0644\u062f": 3019, "\u2581maintenance": 3020, "\u2581\u0644\u0623\u0646\u0647": 3021, "\u2581\u062c\u0645\u064a\u0644": 3022, "\u0627\u0644\u0625\u064a\u062f\u0632": 3023, "\u25812,": 3024, "\u2581\u0627\u0644\u0646\u0647\u062c": 3025, "\u2581friend": 3026, "\u2581activity": 3027, "\u0645\u0646\u0635\u0648\u0635": 3028, "\u2581\u0627\u0644\u0645\u0627\u0636\u064a\u0629": 3029, "\u2581legislative": 3030, "\u064a\u062d": 3031, "\u2581\u0648\u0627\u0644\u062b\u0642\u0627\u0641\u064a\u0629": 3032, "\u2581\u0627\u0644\u0635\u064a\u0646": 3033, "\u2581\u0627\u0644\u0641\u0642\u0631\u0627\u062a": 3034, "\u2581remember": 3035, "\u2581continues": 3036, "\u2581boy": 3037, "\u2581\u0623\u062f\u0627\u0621": 3038, "\u2581\u0642\u062f\u0645\u062a": 3039, "\u2581extent": 3040, "\u2581\u0627\u0644\u0642\u0648\u0627\u0639\u062f": 3041, "\u2581\u062a\u062a": 3042, "\u2581\u0642\u0648\u0627\u062a": 3043, "\u2581\u0645\u0639\u0627\u064a\u064a\u0631": 3044, "\u2581indicators": 3045, "\u2581visit": 3046, "ill": 3047, "\u2581run": 3048, "\u2581\u0644\u062f\u064a\u0647": 3049, "\u2581\u0644\u0644\u0639\u0645\u0644": 3050, "\u2581\u0627\u0644\u0645\u0639\u0627\u0647\u062f\u0627\u062a": 3051, "\u2581\u0634\u0627\u0645\u0644\u0629": 3052, "\u2581universal": 3053, "\u2581elections": 3054, "\u2581relation": 3055, "\u2581continuing": 3056, "\u2581Requests": 3057, "\u2581\u062a\u062a\u062e\u0630": 3058, "\u2581\u062f\u0648\u0631\u062a\u0647": 3059, "\u2581\u0648\u0628\u0627\u0644\u0625\u0636\u0627\u0641\u0629": 3060, "\u2581according": 3061, "\u0644\u0639": 3062, "\u2581Or": 3063, "\u2581\u0623\u062b\u0631": 3064, "\u2581\u0627\u0644\u0641\u0626\u0629": 3065, "\u2581near": 3066, "\u2581collaboration": 3067, "\u2581achieving": 3068, "ia": 3069, "\u2581\u0627\u0644\u0643\u064a\u0645\u064a\u0627\u0626\u064a\u0629": 3070, "\u2581Second": 3071, "\u2581\u0643\u0627\u0646\u0648\u0627": 3072, "\u2581\u0627\u0644\u0633\u0644\u0645": 3073, "se": 3074, "\u2581\u0627\u0644\u062b\u0627\u0645\u0646\u0629": 3075, "}": 3076, "\u2581\u0645\u0628\u0644\u063a": 3077, "\u2581\u0641\u0626\u0629": 3078, "\u2581\u0644\u0628\u0631\u0646\u0627\u0645\u062c": 3079, "\u2581\u0648\u0627\u0644\u062a": 3080, "\u2581\u0627\u062d\u062a\u064a\u0627\u062c\u0627\u062a": 3081, "\u2581\u0645\u0646\u0627\u0642\u0634\u0629": 3082, "\u2581\u0627\u0644\u0645\u0631\u062d\u0644\u0629": 3083, "\u2581emergency": 3084, "\u2581du": 3085, "\u2581paid": 3086, "\u2581\u0642\u062f\u0631": 3087, "\u2581air": 3088, "\u2581obligation": 3089, "\u0645\u0641\u0648\u0636\u064a\u0629": 3090, "8": 3091, "\u2581\u0627\u0644\u0648\u062d\u064a\u062f": 3092, "\u2581\u0634\u0631\u0643\u0629": 3093, "\u2581\u0627\u0644\u0623\u062f\u0627\u0621": 3094, "\u2581displaced": 3095, "\u0639\u064a": 3096, "\u258164": 3097, "\u2581turn": 3098, "\u2581Room": 3099, "\u2581\u0645\u062c\u062f\u062f\u0627": 3100, "\u2581ad": 3101, "\u2581alone": 3102, "\u062a\u0639\u0644\u0645": 3103, "\u2581\u0627\u0644\u0631\u0642\u0627\u0628\u0629": 3104, "\u2581twenty": 3105, "\u2581\u064a\u0645\u0643\u0646\u0646\u0627": 3106, "\u0621": 3107, "\u2581\u0625\u062f\u0631\u0627\u062c": 3108, "\u2581scope": 3109, "\u0643\u062a": 3110, "\u2581transition": 3111, "\u2581terrorist": 3112, "\u2581materials": 3113, "\u2581\u0648\u0647\u0646\u0627\u0643": 3114, "\u0633\u0631": 3115, "\u2581Disarmament": 3116, "ling": 3117, "min": 3118, "ci": 3119, "\u2581\u0648\u0644\u0630\u0644\u0643": 3120, "\u2581\u0627\u0644\u062a\u062d\u0636\u064a\u0631\u064a\u0629": 3121, ".9": 3122, "\u0644\u0642\u062f": 3123, "SR": 3124, "\u2581capital": 3125, "\u2581follows": 3126, "\u2581se": 3127, "\u2581read": 3128, "\u2581\u062a\u0646\u0635": 3129, "\u2581\u062b\u0627\u0646\u064a\u0627": 3130, "\u2581#": 3131, "\u2581Sustainable": 3132, "\u2581relations": 3133, "\u2581transport": 3134, "\u2581technologies": 3135, "\u2581religious": 3136, "\u2581plenary": 3137, "\u2581anti": 3138, "\u2581West": 3139, "\u2581\u0644\u0645\u0624\u062a\u0645\u0631": 3140, "\u2581\u064a\u0637\u0644\u0628": 3141, "\u2581\u0671\u0644": 3142, "\u2581\u0630\u0627": 3143, "wan": 3144, "\u062a\u0631\u0643": 3145, "\u2581true": 3146, "\u2581\u0643\u0628\u064a\u0631\u0627": 3147, "\u2581Latin": 3148, "\u258170": 3149, "\u2581sex": 3150, "\u2581Draft": 3151, "\u0642\u062a\u0644": 3152, "\u2581\u062a\u062a\u0636\u0645\u0646": 3153, "\u2581\u062a\u062d\u062a\u0627\u062c": 3154, "\u2581apply": 3155, "13": 3156, "\u2581create": 3157, "\u2581\u0635\u0646\u0639": 3158, "\u2581complete": 3159, "\u062f\u0631": 3160, "\u2581\u0627\u0644\u0645\u062e\u0635\u0635\u0629": 3161, "\u2581\u0642\u064a\u0627\u0645": 3162, "\u25812005,": 3163, "\u2581vulnerable": 3164, "\u2581\u0627\u0644\u0625\u0646\u062a\u0631\u0646\u062a": 3165, "\u2581voluntary": 3166, "\u2581\u0627\u0644\u0622\u062b\u0627\u0631": 3167, "\u2581\u0627\u0644\u0627\u0646\u062a\u0634\u0627\u0631": 3168, "\u2581makes": 3169, "\u2581opinion": 3170, "\u2581\u0642\u0644\u064a\u0644\u0627": 3171, "\u2581\u0648\u062e\u0627\u0635\u0629": 3172, "\u2581investigation": 3173, "ig": 3174, "\u2581Education": 3175, "\u0628\u0627\u0631": 3176, "\u2581addressing": 3177, "\u2581Headquarters": 3178, "\u2581periodic": 3179, "\u2581\u0645\u0634\u062a\u0631\u0643\u0629": 3180, "\u2581\u0627\u0644\u0633\u0628\u0628": 3181, "\u2581\u0623\u0641\u063a\u0627\u0646\u0633\u062a\u0627\u0646": 3182, "\u2581\u0627\u0644\u062a\u0643\u0646\u0648\u0644\u0648\u062c\u064a\u0627": 3183, "\u2581\u0648\u0638\u0627\u0626\u0641": 3184, "\u2581\u064a\u0645\u062b\u0644": 3185, "\u2581\u0627\u0644\u0645\u0639\u0627\u0645\u0644\u0629": 3186, "\u2581\u0627\u062d\u062a\u0631\u0627\u0645": 3187, "\u2581UNHCR": 3188, "\u2581includes": 3189, "\u2581build": 3190, "\u2581\u0627\u0644\u0648\u062d\u062f\u0629": 3191, "\u2581\u062a\u0645\u062b\u0644": 3192, "\u2581associated": 3193, "\u2581\u0643\u0627\u0645\u0644": 3194, "ick": 3195, "\u2581La": 3196, "j": 3197, "\u2581stakeholders": 3198, "\u2581identify": 3199, "\u2581\u0627\u0644\u0631\u064a\u0641\u064a\u0629": 3200, "\u2581\u0645\u0631\u062d\u0644\u0629": 3201, "/1": 3202, "\u2581methods": 3203, "\u2581along": 3204, "\u2581\u0627\u0644\u0627\u062e\u062a\u064a\u0627\u0631\u064a": 3205, "\u2581lost": 3206, "\u062f\u0645": 3207, "\u2581\u0627\u0644\u0623\u0646": 3208, "\u2581\u0627\u0644\u0645\u0642\u062a\u0631\u062d": 3209, "\u062b\u0642": 3210, "\u2581\u0627\u0644\u062a\u0627\u0633\u0639\u0629": 3211, "\u2581delivery": 3212, "\u2581\u062a\u0642\u0631\u064a\u0628\u0627": 3213, "\u2581\u0627\u0644\u0634\u0631\u0643\u0627\u062a": 3214, "\u2581Give": 3215, "\u2581\u0648\u0648\u0636\u0639": 3216, "\u25811-": 3217, "J": 3218, "\u2581encourage": 3219, "dy": 3220, "\u2581goods": 3221, "\u2581\u0627\u0644\u0628\u0639\u062b\u0627\u062a": 3222, "\u2581\u0627\u0644\u062a\u062d\u062f\u064a\u0627\u062a": 3223, "\u2581\u062c\u064a\u062f\u0629": 3224, "\u2581\u0627\u0644\u0645\u062f\u064a\u0631": 3225, "\u2581loss": 3226, "\u2581\u0627\u0644\u0628\u062d\u062b": 3227, "\u2581\u0648\u0639\u0646": 3228, "\u2581step": 3229, "\u0633\u064a": 3230, "ine": 3231, "\u2581\u0648\u062a\u0645": 3232, "\u2581\u0627\u0644\u0627\u0647\u062a\u0645\u0627\u0645": 3233, "my": 3234, "\u2581lives": 3235, "\u2581disabilities": 3236, "\u2581\u0644\u0644\u0623\u0645\u064a\u0646": 3237, "\u2581\u0628\u062a\u0646\u0641\u064a\u0630": 3238, "\u0631\u0627": 3239, "\u0631\u0627\u0643": 3240, "\u2581\u0627\u0644\u0634\u0631\u0642\u064a\u0629": 3241, "\u2581\u0639\u0644\u064a\u0647\u0645": 3242, "\u2581\u062c\u0644\u0633\u0629": 3243, "\u0636\u0639": 3244, "\u062d\u0629": 3245, "\u2581University": 3246, "\u2581\u0627\u0644\u0627\u0633\u062a\u062b\u0646\u0627\u0626\u064a\u0629": 3247, "\u2581Joint": 3248, "\u2581\u0627\u0644\u0633\u064a\u0627\u0642": 3249, "\u2581\u062a\u0631\u0649": 3250, "\u2581\u062a\u0648\u0627\u0635\u0644": 3251, "\u2581directly": 3252, "\u2581Cuba": 3253, "\u062e\u0631\u062c": 3254, "\u2581language": 3255, "\u2581\u0627\u0644\u0648\u0633\u0637\u0649": 3256, "\u2581\u0627\u0644\u062a\u0635\u0648\u064a\u062a": 3257, "\u2581\u0643\u062b\u064a\u0631": 3258, "\u2581\u0623\u0633\u0627\u0633\u064a\u0629": 3259, "\u2581\u0628\u062f\u0623\u062a": 3260, "\u2581Mexico": 3261, "\u2581\u0628\u062d\u064a\u062b": 3262, "\u2581\u0628\u0627\u0644\u0637\u0628\u0639": 3263, "\u2581\u0627\u0644\u0633\u0627\u0645\u064a\u0629": 3264, "\u2581treaties": 3265, "\u0632\u0644": 3266, "\u2581\u062a\u0639\u062a\u0642\u062f": 3267, "\u2581\u0644\u0644\u0645\u0633\u0627\u0639\u062f\u0629": 3268, "\u2581schools": 3269, "\u2581\u0627\u0644\u0645\u064a\u062f\u0627\u0646": 3270, "\u2581\u0627\u0644\u0634\u0631\u0642": 3271, "\u2581\u0645\u0633\u0624\u0648\u0644\u064a\u0629": 3272, "\u2581\u0627\u0644\u0633\u0627\u0628\u0639\u0629": 3273, "\u258154": 3274, "\u25812006,": 3275, "\u2581\u0643\u0627\u0641\u0629": 3276, "20": 3277, "\u2581\u0628\u0627\u0644\u0625\u0636\u0627\u0641\u0629": 3278, "-1": 3279, "\u2581\u0627\u0644\u062a\u0648\u0635\u064a\u0629": 3280, "\u2581\u0645\u0648\u0642\u0639": 3281, "\u0642\u0635\u062f": 3282, "[": 3283, "\u2581establishing": 3284, "\u2581events": 3285, "\u2581stability": 3286, "\u2581yourself": 3287, "\u2581\u0628\u0627\u0644\u062d\u0642\u0648\u0642": 3288, "\u0644\u0627\u0645": 3289, "making": 3290, "00": 3291, "\u2581\u062c\u0645\u0639": 3292, "\u2581violation": 3293, "\u2581\u0623\u0643": 3294, "\u2581\u0627\u0628\u0646": 3295, "\u2581\u0628\u0646\u0633\u0628\u0629": 3296, "\u2581gave": 3297, "\u2581\u0639\u0644\u0645": 3298, "\u2581\u0644\u0625\u062f\u0627\u0631\u0629": 3299, "\u25812006.": 3300, "\u0641\u0627\u0642": 3301, "\u2581short": 3302, "\u2581\u0628\u062d\u0627\u062c\u0629": 3303, "\u2581similar": 3304, "\u2581\u0661\u0661": 3305, "\u2581\u0648\u0628\u0627\u0644\u062a\u0627\u0644\u064a": 3306, "\u2581English": 3307, "\u0639\u0644\u0645": 3308, "\u2581\u0634\u0623\u0646": 3309, "\u2581\u0639\u0632\u064a\u0632": 3310, "\u25818.": 3311, "\u2581\u0645\u0631\u0641\u0642": 3312, "\u2581Add": 3313, "\u2581Furthermore": 3314, "\u0643\u0646": 3315, "\u2581\u062a\u0628\u0627\u062f\u0644": 3316, "\u2581adopt": 3317, "\u2581\u0639\u0645\u0627": 3318, "\u258156": 3319, "\u2581consensus": 3320, "\u2581\u0633\u064a\u0627\u0633\u0629": 3321, "\u2581\u0623\u0633\u0627\u0633\u0627": 3322, "z": 3323, "\u2581\u0627\u0644\u0634\u0639\u0628\u064a\u0629": 3324, "\u2581\u064a\u0644\u0632\u0645": 3325, "\u25812-": 3326, "\u2581jurisdiction": 3327, "\u2581\u0627\u0644\u0631": 3328, "\u2581Goals": 3329, "\u2581saying": 3330, "\u2581\u0627\u0644\u0635\u0627\u062f\u0631": 3331, "\u2581\u0641\u0643\u0631\u0629": 3332, "\u2581Islamic": 3333, "\u2581\u0628\u062a\u0642\u062f\u064a\u0645": 3334, "\u2581\u0637\u0631\u0641": 3335, "\u2581physical": 3336, "\u2581Iran": 3337, "\u2581led": 3338, "\u2581record": 3339, "\u2581\u0644\u0644\u0628\u064a\u0626\u0629": 3340, "\u2581destruction": 3341, "\u2581balance": 3342, "\u2581\u0627\u0644\u0623\u0648\u0646\u0643\u062a\u0627\u062f": 3343, "\u2581\u0627\u0644\u0639\u0642\u062f": 3344, "way": 3345, "\u2581reached": 3346, "\u2581receive": 3347, "\u0648\u0646\u064a": 3348, "\u2581ground": 3349, "\u2581\u0627\u0644\u062a\u0642\u0644\u064a\u062f\u064a\u0629": 3350, "\u2581\u0648\u0627\u0644\u0645\u0624\u0633\u0633\u0627\u062a": 3351, "\u2581aid": 3352, "\u2581Inter": 3353, "\u2581\u0648\u0642": 3354, "\u2581\u062e\u0637\u0637": 3355, "11": 3356, "\u2581\u0661\u0660": 3357, "\u2581carry": 3358, "\u25812005\u060c": 3359, "\u2581\u0627\u062a": 3360, "\u2581\u0642\u0628\u064a\u0644": 3361, "\u2581morning": 3362, "30": 3363, "\u2581\u0644\u0635\u0627\u0644\u062d": 3364, "\u2581Thanks": 3365, "\u2581Persons": 3366, "\u2581parts": 3367, "\u2581applied": 3368, "\u2581\u0648\u0627\u0644\u0623": 3369, "\u2581\u062d\u062f\u0648\u062f": 3370, "\u2581\u0645\u0639\u0647": 3371, "\u2581\u0627\u0644\u0625\u0639\u0627\u0642\u0629": 3372, "\u2581courts": 3373, "\u2581\u0627\u0644\u0628\u064a\u0627\u0646": 3374, "\u258157": 3375, "\u2581settlement": 3376, "\u2581knew": 3377, "\u2581creation": 3378, "\u2581\u0627\u0644\u0642\u0631\u0646": 3379, "\u2581Those": 3380, "\u2581baby": 3381, "\u062d\u062a\u0627\u062c": 3382, "\u2581\u064a\u062a\u0636\u0645\u0646": 3383, "\u2581\u0642\u0627\u0644\u062a": 3384, "\u2581welcome": 3385, "\u2581\u0637\u0644\u0628\u062a": 3386, "\u2581\u0625\u0636\u0627\u0641\u0629": 3387, "\u2581\u0627\u0644\u0645\u062c\u062a\u0645\u0639\u0627\u062a": 3388, "\u2581French": 3389, "\u2581\u0636\u062d\u0627\u064a\u0627": 3390, "\u2581\u0643\u0627\u0641\u064a\u0629": 3391, "\u2581encouraged": 3392, "\u2581\u0634\u0639\u0628\u0629": 3393, "\u2581Ad": 3394, "\u062d\u0645": 3395, "_": 3396, "\u2581\u0627\u0644\u063a\u0631\u0628\u064a\u0629": 3397, "\u2581permanent": 3398, "\u25812004,": 3399, "\u2581distribution": 3400, "\u2581Chief": 3401, "\u25812004.": 3402, "\u25812002,": 3403, "\u0630\u064a": 3404, "\u2581contract": 3405, "\u2581\u062c\u0639\u0644": 3406, "\u2581\u0648\u0627\u0644\u062e\u062f\u0645\u0627\u062a": 3407, "\u2581\u0627\u0644\u0645\u0642\u0628\u0644\u0629": 3408, "\u2581\u0627\u0644\u0634\u0645\u0627\u0644\u064a\u0629": 3409, "\u2581\u0627\u0644\u0635\u0631\u0627\u0639": 3410, "\u258180": 3411, "\u2581Germany": 3412, "\u2581\u0627\u0644\u062f\u0631\u0627\u0633\u0629": 3413, "\u2581Ex": 3414, "\u2581fun": 3415, "\u2581\u064a\u0642\u0648\u0644": 3416, "\u2581\u0627\u0644\u062f": 3417, "\u2581wife": 3418, "\u2581mine": 3419, "\u0639\u0628": 3420, "\u2581\u0627\u0644\u0627\u0646\u062a\u062e\u0627\u0628\u0627\u062a": 3421, "\u2581\u0627\u0644\u0643\u0627\u0631\u064a\u0628\u064a": 3422, "\u2581\u0627\u0644\u0645\u0628\u0644\u063a": 3423, "\u2581\u0627\u0644\u0633\u0646\u0648\u064a\u0629": 3424, "\u2581\u0623\u0644": 3425, "\u2581maybe": 3426, "AL": 3427, "\u2581consultation": 3428, "\u2581conferences": 3429, "\u2581\u0627\u0644\u0628\u062d\u0627\u0631": 3430, "\u2581\u0631\u0628": 3431, "\u0648\u0643": 3432, "\u2581\u0648\u0627\u0644\u0628\u0644\u062f\u0627\u0646": 3433, "\u2581across": 3434, "for": 3435, "\u0631\u062d": 3436, "\u25812008.": 3437, "\u2581After": 3438, "\u2581\u0637\u0641\u0644": 3439, "\u2581\u062d\u0628": 3440, "\u2581citizens": 3441, "\u2581regime": 3442, "\u2581supporting": 3443, "\u2581cover": 3444, "\u25812003,": 3445, "\u2581fund": 3446, "\u2581relationship": 3447, "\u2581improved": 3448, "\u2581single": 3449, "\u2581\u0645\u0642\u0631": 3450, "\u062d\u0635\u0644": 3451, "\u2581week": 3452, "\u2581central": 3453, "\u2581partnership": 3454, "\u2581\u0623\u062f\u0646\u0627\u0647": 3455, "\u2581\u0627\u0644\u0639\u0636\u0648\u064a\u0629": 3456, "\u2581serve": 3457, "\u2581\u0627\u0644\u0645\u062a\u062e\u0630\u0629": 3458, "\u2581compensation": 3459, "\u0631\u0627\u0621": 3460, "\u2581\u0627\u0644\u0642\u0627\u0626\u0645": 3461, "\u2581\u0627\u0644\u0645\u0646\u0634\u0623\u0629": 3462, "\u2581nice": 3463, "\u2581\u0628\u062c\u0645\u064a\u0639": 3464, "\u2581Hi": 3465, "\u2581\u0644\u0645\u062c\u0644\u0633": 3466, "\u2581known": 3467, "\u2581ma": 3468, "\u2581\u0623\u0646\u0647\u0645": 3469, "\u2581longer": 3470, "\u2581\u0627\u0644\u062e\u062a\u0627\u0645\u064a\u0629": 3471, "\u25812007,": 3472, "\u2581Prevention": 3473, "\u2581points": 3474, "\u2581Vienna": 3475, "\u2581\u062a\u062f\u0631\u064a\u0628": 3476, "\u2581\u0627\u0644\u0644\u064a\u0644\u0629": 3477, "\u2581submission": 3478, "\u2581Legal": 3479, "\u2581\u062a\u0642\u0644": 3480, "\u2581(1": 3481, "\u2581\u0639\u0646\u0627\u0635\u0631": 3482, "\u2581\u0641\u0648\u0642": 3483, "\u2581conflicts": 3484, "\u2581\u0648\u062c\u0645\u0647\u0648\u0631\u064a\u0629": 3485, "\u25812007.": 3486, "\u2581\u0645\u0642\u062f\u0645\u0629": 3487, "end": 3488, "\u2581\u0631\u063a\u0645": 3489, "\u2581\u064a\u062c\u0639\u0644": 3490, "\u0646\u0639\u0645": 3491, "\u2581\u0633\u0648\u0649": 3492, "\u2581reasons": 3493, "\u2581signed": 3494, "\u2581\u0648\u0623\u0636\u0627\u0641": 3495, "\u2581\u0628\u062a": 3496, "sh": 3497, "\u2581di": 3498, "\u2581\u0642\u0627\u0626\u0644\u0627": 3499, "di": 3500, "\u2581\u0637\u0631\u064a\u0642\u0629": 3501, "\u2581seek": 3502, "\u2581\u0641\u0639\u0644\u0627": 3503, "\u2581\u062a\u0639\u064a\u064a\u0646": 3504, "\u2581practical": 3505, "\u2581\u0627\u0644\u0627\u0636\u0637\u0644\u0627\u0639": 3506, "\u2581\u0645\u0633\u062a\u0648\u064a\u0627\u062a": 3507, "\u2581\u0627\u0644\u0642\u0637\u0631\u064a\u0629": 3508, "\u2581applicable": 3509, "\u0631\u064a\u0643": 3510, "\u2581\u0647\u0643\u0630\u0627": 3511, "\u2581\u0623\u0642\u0648\u0644": 3512, "\u2581sixty": 3513, "\u2581\u062d\u0631\u064a\u0629": 3514, "\u2581\u0648\u0632\u064a\u0627\u062f\u0629": 3515, "\u2581\u0627\u0644\u0622\u062e\u0631\u064a\u0646": 3516, "\u2581Our": 3517, "\u2581\u062d\u0635\u0644\u062a": 3518, "\u2581\u0644\u062a\u062d\u0633\u064a\u0646": 3519, "\u2581\u0623\u0635\u0628\u062d": 3520, "ac": 3521, "em": 3522, "est": 3523, "\u2581\u062c\u064a": 3524, "\u2581\u062c\u0632\u0621\u0627": 3525, "\u2581\u0648\u0623\u0639\u0631\u0628": 3526, "\u2581\u0627\u0644\u0645\u0635\u0644\u062d\u0629": 3527, "\u2581\u0639\u0636\u0648": 3528, "\u2581\u0627\u0644\u062a\u0635\u062f\u064a": 3529, "\u2581states": 3530, "first": 3531, "\u2581\u062c\u0645\u0644\u0629": 3532, "\u2581\u0638\u0631\u0648\u0641": 3533, "\u062d\u0627\u0648\u0644": 3534, "\u2581raised": 3535, "\u2581\u0644\u0644\u062a\u0639\u0627\u0648\u0646": 3536, "\u2581judges": 3537, "\u2581\u0627\u0644\u0645\u0630\u0643\u0648\u0631\u0629": 3538, "\u0645\u0627\u0646": 3539, "\u0634\u064a": 3540, "7": 3541, "\u2581\u0627\u0644\u062f\u0633\u062a\u0648\u0631": 3542, "\u0627\u064a": 3543, "\u2581\u0644\u0625": 3544, "\u2581\u062a\u0636\u0639": 3545, "\u258190": 3546, "\u2581Middle": 3547, "body": 3548, "\u2581\u0627\u0644\u0645\u0641\u0627\u0648\u0636\u0627\u062a": 3549, "\u2581Table": 3550, "\u2581Elimination": 3551, "\u2581\u062a\u063a\u064a\u064a\u0631": 3552, "\u0645\u0643\u0646": 3553, "iv": 3554, "\u2581Optional": 3555, "\u2581\u0645\u0628\u062f\u0623": 3556, "\u2581\u0628\u0627\u0644\u0645\u0631\u0623\u0629": 3557, "\u25812003.": 3558, "ak": 3559, "ous": 3560, "\u2581dollars": 3561, "\u0644\u064a\u0646": 3562, "\u2581\u0639\u062f\u064a\u062f\u0629": 3563, "\u2581positions": 3564, "\u2581\u062d\u0633\u0627\u0628": 3565, "{": 3566, "\u2581\u0623\u0639\u0644\u0649": 3567, "\u0644\u0647": 3568, "\u2581\u0627\u0644\u0645\u0634\u0627\u0631": 3569, "\u2581created": 3570, "\u2581\u0637\u0648\u064a\u0644\u0629": 3571, "\u2581products": 3572, "\u2581Although": 3573, "\u2581\u0641\u062a": 3574, "\u2581\u0633\u0628\u0628": 3575, "ha": 3576, "\u2581\u0627\u0644\u0627\u0645\u062a\u062b\u0627\u0644": 3577, "\u25812008,": 3578, "\u2581Have": 3579, "\u2581IV": 3580, "\u2581almost": 3581, "\u2581concluded": 3582, "\u2581\u0641\u0641\u064a": 3583, "\u2581parents": 3584, "\u2581\u062c\u064a\u062f\u0627": 3585, "\u2581\u062d\u062f\u0648\u062b": 3586, "\u2581\u0627\u0644\u062c\u0646\u0648\u0628": 3587, "\u2581structure": 3588, "\u2581\u0661\u0662": 3589, "\u2581economies": 3590, "\u2581\u0627\u0644\u0627\u0633\u062a\u0642\u0631\u0627\u0631": 3591, "\u2581implications": 3592, "\u2581\u0623\u062e\u0630": 3593, "\u0631\u0627\u0645": 3594, "\u2581\u062d\u0638\u0631": 3595, "\u2581clearly": 3596, "\u2581Ireland": 3597, "\u2581\u0628\u0648\u062c\u0647": 3598, "\u2581\u0628\u0630\u0644": 3599, "\u2581\u0628\u0627\u0633\u062a\u062e\u062f\u0627\u0645": 3600, "ud": 3601, "10": 3602, "\u2581beyond": 3603, "ho": 3604, "\u2581\u0627\u0644\u0623\u062c\u0627\u0646\u0628": 3605, "\u2581\u0627\u0644\u0645\u062d\u0627\u0643\u0645": 3606, "\u2581\u0627\u0644\u0628\u0627\u0644\u063a": 3607, "\u2581initial": 3608, "\u2581\u0648\u0627\u0644\u0633\u062a\u064a\u0646": 3609, "\u2581Australia": 3610, "\u2581\u0625\u062d\u062f\u0649": 3611, "\u2581Syrian": 3612, "\u2581\u062a\u0639\u0627\u0644": 3613, "\u25819.": 3614, "\u0627\u062b": 3615, "\u2581majority": 3616, "\u062a\u0627": 3617, "\u2581housing": 3618, "ut": 3619, "\u2581\u0627\u0644\u0635": 3620, "\u2581consistent": 3621, "\u2581actors": 3622, "\u062c\u0648": 3623, "\u2581\u062a\u062f\u0639\u0648": 3624, "\u2581factors": 3625, "\u2581\u0643\u0648\u0633\u0648\u0641\u0648": 3626, "-3": 3627, "\u2581\u062a\u0643\u0641\u0644": 3628, "\u2581respective": 3629, "\u062a\u0646\u064a": 3630, "\u2581Coordination": 3631, "\u2581Pacific": 3632, "\u2581illegal": 3633, "\u2581reflected": 3634, "\u2581personal": 3635, "\u2581\u0627\u0633\u062a\u0646\u0627\u062f\u0627": 3636, "\u25812001,": 3637, "\u2581leaders": 3638, "-2": 3639, "\u2581\u0623\u0634\u0647\u0631": 3640, "\u2581covered": 3641, "\u2581\u0623\u0635\u0628\u062d\u062a": 3642, "\u2581\u0648\u0632\u064a\u0631": 3643, "\u25812000,": 3644, "\u2581\u0648\u0627\u0644\u0627\u0642\u062a\u0635\u0627\u062f\u064a\u0629": 3645, "-4": 3646, "\u2581\u0627\u0644\u062f\u0631\u0627\u0633\u064a\u0629": 3647, "per": 3648, "\u25812006\u060c": 3649, "\u2581\u0628\u0631\u0648\u062a\u0648\u0643\u0648\u0644": 3650, "\u064a\u0646\u0627": 3651, "\u2581bilateral": 3652, "\u2581guess": 3653, "\u25812002.": 3654, "ge": 3655, "\u2581task": 3656, "\u2581\u0627\u0644\u0639\u0627\u0645\u0644\u064a\u0646": 3657, "\u2581Lebanon": 3658, "\u2581Federal": 3659, "\u2581\u0627\u0644\u0646\u0637\u0627\u0642": 3660, "\u2581\u062e\u0645\u0633": 3661, "\u2581\u0627\u0644\u0623\u0648\u0633\u0637": 3662, "\u2581\u0623\u0628": 3663, "\u0646\u062a\u0638\u0631": 3664, "\u2581_": 3665, "\u2581presence": 3666, "\u2581\u0648\u062a\u0648\u0641\u064a\u0631": 3667, "\u2581\u0627\u0644\u0639\u0644\u0627\u0642\u0627\u062a": 3668, "\u2581\u0627\u0639\u062a\u0645\u062f\u062a": 3669, "\u2581advice": 3670, "\u2581achievement": 3671, "\u2581\u0627\u0644\u0630\u0627\u062a\u064a": 3672, "\u2581\u0648\u0627\u0633\u0639": 3673, "\u2581prison": 3674, "ell": 3675, "\u2581\u0627\u0644\u0637\u0631\u064a\u0642\u0629": 3676, "\u2581\u062c\u0632\u0621": 3677, "\u2581\u062a\u0631\u062d\u0628": 3678, "\u2581\u0627\u0644\u0636\u0631\u0648\u0631\u064a": 3679, "\u2581\u062a\u062d\u0644\u064a\u0644": 3680, "\u0643\u0648\u0646": 3681, "\u2581\u0627\u0644\u0645\u064a\u062f\u0627\u0646\u064a\u0629": 3682, "\u2581\u062a\u0639\u062f": 3683, "\u2581completed": 3684, "\u0645\u064a": 3685, "\u2581\u064a\u0634\u064a\u0631": 3686, "\u2581\u0627\u0644\u0641\u0644\u0633\u0637\u064a\u0646\u064a": 3687, "\u2581heart": 3688, "\u2581\u0627\u0644\u062a\u062e\u0637\u064a\u0637": 3689, "\u0643\u0627\u0631": 3690, "\u2581maintain": 3691, "\u2581successful": 3692, "\u2581\u0642\u0631\u0631\u062a": 3693, "\u258159": 3694, "\u2581\u0645\u0633": 3695, "\u2581\u0627\u0633\u062a\u0639\u0645\u0627\u0644": 3696, "\u258166": 3697, "\u2581consequences": 3698, "=": 3699, "\u2581\u0643\u0646\u0627": 3700, "\u2581\u0648\u062a\u062d\u0633\u064a\u0646": 3701, "\u2581\u062a\u0624\u062f\u064a": 3702, "\u2581Un": 3703, "\u0631\u0642": 3704, "\u2581requires": 3705, "\u2581ethnic": 3706, "\u2581takes": 3707, "\u2581\u0635\u0644\u0629": 3708, "\u2581recently": 3709, "\u0644\u0645\u0639\u0627\u0644\u062c\u0629": 3710, "\u2581\u0627\u0644\u0644\u062c\u0648\u0621": 3711, "\u2581\u0643\u0627\u0644": 3712, "\u2581\u0627\u0644\u0632": 3713, "\u2581\u0647\u0627\u0645\u0629": 3714, "\u2581\u0628\u0648\u0636\u0639": 3715, "\u2581\u0627\u0644\u0645\u0633\u0624\u0648\u0644\u064a\u0646": 3716, "\u2581\u0627\u0644\u063a\u0631\u0636": 3717, "\u0623\u064a": 3718, "\u2581\u0627\u0644\u0645\u062e\u0627\u0637\u0631": 3719, "\u2581\u062a\u0639\u062a\u0628\u0631": 3720, "\u2581\u0627\u0644\u0633\u0646\u0648\u064a": 3721, "\u2581efficiency": 3722, "\u2581Administration": 3723, ".1)": 3724, "\u2581standard": 3725, "\u2581\u0627\u0644\u062d": 3726, "\u064a\u0639": 3727, "\u2581\u0627\u0644\u0645\u0646\u0632\u0644": 3728, "\u2581though": 3729, "\u2581\u0648\u0642\u0641": 3730, "\u2581\u062a\u0648\u0633\u064a\u0639": 3731, "\u2581\u0627\u0644\u0642\u0637\u0631\u064a": 3732, "\u2581illicit": 3733, "\u2581\u0645\u0648\u0639\u062f": 3734, "\u2581\u0627\u0646\u062a\u0647\u0627\u0643\u0627\u062a": 3735, "\u2581\u0627\u0644\u0625\u0634\u0627\u0631\u0629": 3736, "\u2581\u0645\u064a\u062f\u0627\u0646": 3737, "\u2581\u0628\u0627\u0644\u062a\u0623\u0643\u064a\u062f": 3738, "\u2581\u0627\u0644\u0633\u0644\u0639": 3739, "\u2581\u0627\u0644\u0645\u062f\u0627\u0631\u0633": 3740, "\u2581\u0648\u0627\u0644\u0623\u0637\u0641\u0627\u0644": 3741, "\u2581Distr": 3742, "\u2581\u0627\u0644\u0641\u0631\u0639": 3743, "\u2581mentioned": 3744, "\u2581200": 3745, "U": 3746, "\u2581solution": 3747, "\u2581Association": 3748, "night": 3749, "\u2581although": 3750, "\u2581everyone": 3751, "\u2581\u0642\u064a\u0645\u0629": 3752, "less": 3753, "\u2581St": 3754, "\u2581\u0644\u0644\u0645\u062c\u0644\u0633": 3755, "\u2581\u0627\u0644\u0645\u0634\u0648\u0631\u0629": 3756, "\u2581detailed": 3757, "\u2581\u0637\u0648\u0627\u0644": 3758, "\u2581\u0623\u062f\u0644\u0649": 3759, "\u2581suggested": 3760, "\u2581\u0639\u0645\u0644\u0647\u0627": 3761, "\u2581\u0627\u0644\u064a\u0648\u0646\u064a\u0633\u064a\u0641": 3762, "\u0628\u064a\u0646": 3763, "\u2581Territory": 3764, "\u2581\u0628\u0646": 3765, "\u258163": 3766, "\u2581word": 3767, "\u2581external": 3768, "://": 3769, "\u258167": 3770, "\u2581challenge": 3771, "\u2581goal": 3772, "\u2581\u0642\u062f\u0631\u0627\u062a": 3773, "\u2581\u0645\u0647\u0645\u0629": 3774, "%": 3775, "\u2581\u0625\u0646\u062a\u0627\u062c": 3776, "\u2581\u0645\u062a\u0649": 3777, "ton": 3778, "\u2581\u0627\u0644\u0645\u062a\u0648\u0642\u0639": 3779, "\u2581rest": 3780, "Governing": 3781, "-20": 3782, "\u2581Y": 3783, "ated": 3784, "\u2581educational": 3785, "\u2581\u0627\u0639\u062a\u0642\u062f": 3786, "\u2581\u0623\u0639\u0631\u0628": 3787, "\u2581\u0627\u0644\u0645\u0648\u0642\u0639": 3788, "\u25812004\u060c": 3789, "\u2581\u0623\u064a\u0627\u0645": 3790, "\u2581Item": 3791, "\u2581\u0627\u0644\u0645\u0647\u0645": 3792, "tic": 3793, "\u2581stage": 3794, "\u2581contact": 3795, "\u0644\u064a\u0633": 3796, "\u2581\u0627\u0644\u0622\u062e\u0631": 3797, "\u2581Note": 3798, "\u2581\u0642\u0633\u0645": 3799, "\u2581event": 3800, "\u2581\u0627\u0644\u064a\u0627\u0628\u0627\u0646": 3801, "\u2581Nuclear": 3802, "\u0648\u064a\u0629": 3803, "\u2581fair": 3804, "\u2581\u064a\u062f": 3805, "\u062a\u062d\u062f\u062b": 3806, "\u2581Guinea": 3807, "\u2581\u0627\u0644\u0634\u064a\u0621": 3808, "\u2581core": 3809, "\u2581sanctions": 3810, "no": 3811, "\u2581\u0627\u0644\u0627\u062a\u062d\u0627\u062f\u064a\u0629": 3812, "\u2581youth": 3813, "\u2581supply": 3814, "\u2581duty": 3815, "\u2581\u0639\u062f\u062f\u0627": 3816, "\u2581\u0648\u062c\u062f\u062a": 3817, "\u2581\u062a\u0648\u062c\u064a\u0647": 3818, "\u2581\u0627\u0644\u062f\u062e\u0644": 3819, "\u2581\u0630\u0643\u0631": 3820, "\u0645\u0648\u0646": 3821, "\u2581started": 3822, "\u0643\u0645\u0627": 3823, "\u2581\u0645\u0647\u0644": 3824, "\u2581victim": 3825, "\u2581\u0641\u064a\u064a\u0646\u0627": 3826, "\u2581\u062f\u0641\u0639": 3827, "\u2581\u0627\u0644\u0623\u063a\u0630\u064a\u0629": 3828, "\u258161": 3829, "\u2581observations": 3830, "\u2581\u0661\u0665": 3831, "\u2581\u0627\u0644\u0646\u0641\u0642\u0627\u062a": 3832, "\u0633\u062a\u0637\u064a\u0639": 3833, "\u2581\u0623\u0642": 3834, "\u2581anyone": 3835, "\u2581\u0627\u0644\u0648\u0632\u0631\u0627\u0621": 3836, "\u2581\u0627\u0644\u0631\u0633\u0627\u0644\u0629": 3837, "\u2581\u0642\u0627\u0646\u0648\u0646\u064a\u0629": 3838, "\u2581approaches": 3839, "\u2581\u0627\u0644\u0648\u0644\u0627\u064a\u0629": 3840, "ting": 3841, "\u2581\u0627\u0644\u0645\u062d\u064a\u0637": 3842, "\u0627\u0631\u064a": 3843, "\u2581AND": 3844, "\u2581exploitation": 3845, "\u2581\u0644\u0644\u0645\u0627\u062f\u0629": 3846, "\u25812002\u060c": 3847, "\u2581\u062a\u064a\u0633\u064a\u0631": 3848, "\u2581procurement": 3849, "\u2581\u0635\u064a\u0627\u063a\u0629": 3850, "\u2581\u0627\u0644\u0631\u0635\u062f": 3851, "\u2581\u062d\u064a\u0627\u0629": 3852, "\u2581\u0648\u0627\u0644\u0645\u062c\u062a\u0645\u0639": 3853, "\u2581cause": 3854, "\u2581sufficient": 3855, "\u2581designed": 3856, "\u2581\u0627\u0644\u0645\u062a\u062e\u0635\u0635\u0629": 3857, "\u2581discussed": 3858, "\u2581\u0627\u0644\u062d\u0627\u0644": 3859, "\u2581female": 3860, "\u2581\u0627\u0644\u0646\u0638\u0645": 3861, "\u2581\u0628\u0646\u0641\u0633": 3862, "\u2581\u062d\u0643\u0648\u0645\u064a\u0629": 3863, "\u2581expenditure": 3864, "\u2581remained": 3865, "\u2581instrument": 3866, "\u25812003\u060c": 3867, "\u2581\u0627\u0644\u0645\u0633\u0627\u0647\u0645\u0629": 3868, "\u2581\u0627\u0644\u0637": 3869, "\u2581Police": 3870, "\u2581\u0627\u0644\u0635\u0643\u0648\u0643": 3871, "ga": 3872, "\u2581\u0627\u0644\u0645\u0628\u0627\u062f\u0631\u0627\u062a": 3873, "\u2581\u0648\u0643\u0645\u0627": 3874, "\u2581\u0645\u0634\u0627\u0643\u0644": 3875, "\u2581\u0642\u062f\u0631\u0647": 3876, "\u2581\u0628\u0648\u0635\u0641\u0647": 3877, "\u2581\u0645\u0631\u0627\u062c\u0639\u0629": 3878, "\u25813-": 3879, "\u2581\u0648\u0625": 3880, "\u25812001.": 3881, "\u2581accountability": 3882, "\u2581leadership": 3883, "\u2581studies": 3884, "\u25812000.": 3885, "\u2581Me": 3886, "\u2581friends": 3887, "\u25812007\u060c": 3888, "\u2581beginning": 3889, "\u2581border": 3890, "\u2581\u0627\u0644\u0647\u062c\u0631\u0629": 3891, "\u2581units": 3892, "\u2581\u0627\u0644\u0630": 3893, "\u2581\u064a\u0639\u062f": 3894, "\u2581Take": 3895, "\u0631\u0643": 3896, "amp": 3897, "\u2581\u062c\u0632\u0631": 3898, "\u2581\u0625\u0635\u062f\u0627\u0631": 3899, "\u2581\u0627\u0644\u0645\u0647\u0627\u062c\u0631\u064a\u0646": 3900, "\u2581resulting": 3901, "\u2581\u0648\u0633\u0627\u0626\u0644": 3902, "\u2581et": 3903, "\u2581civilians": 3904, "\u2581\u0627\u0644\u0625\u0633\u0644\u0627\u0645\u064a\u0629": 3905, "\u2581Brazil": 3906, "ii": 3907, "\u2581US": 3908, "\u2581da": 3909, "\u2581source": 3910, "\u0628\u0627\u0644": 3911, "\u2581gone": 3912, "\u2581\u0634\u0627\u0645\u0644": 3913, "\u2581\u0645\u0635\u0627\u062f\u0631": 3914, "\u2581\u0627\u0644\u0645\u062d\u062a\u0644\u0629": 3915, "\u2581mass": 3916, "\u2581\u0628\u0627\u0644\u062a": 3917, "\u2581demand": 3918, "\u2581North": 3919, "\u2581\u064a\u0646\u0635": 3920, "\u2581phase": 3921, "\u0631\u0648": 3922, "\u0627\u0646\u0627": 3923, "\u2581Sub": 3924, "\u2581monitor": 3925, "\u2581\u062f\u0627\u0644": 3926, "\u2581trial": 3927, "ations": 3928, "\u2581\u0633\u0645\u0639\u062a": 3929, "\u062f\u0648\u0646": 3930, "\u2581Community": 3931, "\u2581\u064a\u0648\u0645\u0627": 3932, "\u2581\u0627\u0644\u0630\u0647\u0627\u0628": 3933, "\u0639\u0645\u0644": 3934, "\u2581independence": 3935, "\u2581\u0627\u0644\u0645\u0634\u0643\u0644\u0629": 3936, "\u2581says": 3937, "65": 3938, "90": 3939, "\u2581sp": 3940, "\u2581Members": 3941, "\u2581\u0627\u0644\u0645\u0645\u0643\u0646": 3942, "\u2581\u064a\u0639\u0631\u0641": 3943, "\u2581\u0627\u0644\u0635\u0627\u062f\u0631\u0629": 3944, "\u2581\u0627\u0644\u062d\u0627\u062f\u064a\u0629": 3945, "\u2581\u0623\u0648\u062c\u0647": 3946, "\u2581\u0648\u0623\u0646\u0647": 3947, "\u2581(19": 3948, "\u25812008\u060c": 3949, "\u2581\u0648\u0627\u0644\u0633\u064a\u0627\u0633\u064a\u0629": 3950, "\u062f\u062a": 3951, "United": 3952, "\u2581\u0644\u0644\u0623": 3953, "\u2581\u0648\u0623\u0634\u0627\u0631": 3954, "\u2581\u0628\u062f\u0644\u0627": 3955, "\u2581\u0628\u062f\u0623": 3956, "\u2581\u0628\u0648\u0627\u0633\u0637\u0629": 3957, "\u2581\u0627\u062c\u0644": 3958, "\u2581\u0625\u064a\u0631\u0627\u0646": 3959, "\u064a\u0621": 3960, "\u2581Le": 3961, "\u2581\u0627\u0644\u062a\u0632\u0627\u0645": 3962, "15": 3963, "\u2581\u0628\u062f\u0621": 3964, "\u2581\u0627\u0644\u062f\u064a\u0646": 3965, "\u2581\u0627\u0644\u0645\u0643\u0627\u062a\u0628": 3966, "12": 3967, "\u2581des": 3968, "\u2581\u0644\u0644\u0623\u0637\u0641\u0627\u0644": 3969, "\u2581\u0627\u0644\u0639\u0644\u0645\u064a\u0629": 3970, "\u2581\u064a\u0632\u064a\u062f": 3971, "\u2581ch": 3972, "\u2581capacities": 3973, "\u064a\u062a\u0647\u0627": 3974, "\u2581hu": 3975, "\u2581Letter": 3976, "\u2581\u0627\u0644\u0639\u0646\u0627\u0635\u0631": 3977, "\u2581\u0627\u0644\u0641\u0633\u0627\u062f": 3978, "all": 3979, "\u2581criteria": 3980, "\u2581\u062a\u0633\u062a\u062e\u062f\u0645": 3981, "\u2581reach": 3982, "\u0639\u062f\u0645": 3983, "\u2581\u062a\u0639\u062f\u064a\u0644": 3984, "\u2581\u0632\u0627\u0644": 3985, "\u2581involving": 3986, "\u2581\u0628\u0627\u0644\u063a": 3987, "\u2581Con": 3988, "\u2581inside": 3989, "\u2581subregional": 3990, "\u2581\u0648\u062d\u0642\u0648\u0642": 3991, "\u2581\u0644\u0645\u0646\u0638\u0645\u0629": 3992, "\u2581\u0623\u0645\u0627\u0646\u0629": 3993, "\u2581Kosovo": 3994, "\u2581\u0648\u0627\u0644\u0645\u0633\u0627\u0639\u062f\u0629": 3995, "\u0648\u062d": 3996, "\u2581culture": 3997, "\u2581\u062a\u0646": 3998, "\u2581Her": 3999, "\u2581\u0648\u0631\u062f": 4000, "\u2581\u062a\u0635\u0628\u062d": 4001, "\u2581\u0631\u0626\u064a\u0633\u064a\u0629": 4002, "\u2581\u0628\u0633\u0631\u0639\u0629": 4003, "\u2581Moreover": 4004, "\u2581\u0645\u0648\u0627\u062f": 4005, "\u2581\u0632\u0627\u0644\u062a": 4006, "\u2581\u0627\u0644\u0639\u0648\u062f\u0629": 4007, "\u2581\u0648\u062e\u0644\u0627\u0644": 4008, "\u2581pretty": 4009, "\u2581figure": 4010, "\u2581\u062e\u0645\u0633\u0629": 4011, "\u062f\u0627\u0646": 4012, "\u2581\u0648\u0628\u0627\u0644": 4013, "\u2581urgent": 4014, "\u2581\u0641\u064a\u0631\u0648\u0633": 4015, "\u2581\u0627\u0644\u0627\u062a\u0635\u0627\u0644\u0627\u062a": 4016, "\u2581scientific": 4017, "\u2581\u0627\u0644\u0641\u0631\u0635": 4018, "ish": 4019, "\u2581cut": 4020, "\u2581temporary": 4021, "\u2581counter": 4022, "\u2581Labour": 4023, "\u2581\u0628\u0627\u0644\u0627\u0646\u0643\u0644\u064a\u0632\u064a\u0629": 4024, "\u2581partnerships": 4025, "\u2581welcomes": 4026, "\u2581\u0636": 4027, "\u2581Pakistan": 4028, "\u2581conclusion": 4029, "\u2581\u0645\u064a\u062b\u0627\u0642": 4030, "\u2581\u0627\u0644\u062b\u0642\u0629": 4031, "\u0628\u0627\u062a": 4032, "\u2581\u0648\u0627\u0644\u0647\u0631\u0633\u0643": 4033, "\u0640)": 4034, "\u2581traditional": 4035, "\u2581\u0627\u0644\u0642\u0627\u0639\u062f\u0629": 4036, "\u2581\u0645\u062f\u064a\u0631": 4037, "\u2581\u0627\u0646\u062a\u0638\u0631": 4038, "\u0631\u0648\u0646": 4039, "\u2581Policy": 4040, "\u258162": 4041, "\u2581\u0641\u0623": 4042, "\u2581billion": 4043, "\u2581\u064a\u0631\u064a\u062f": 4044, "\u2581\u0647\u062f\u0641": 4045, "\u2581honour": 4046, "\u2581appeal": 4047, "\u2581\u0644\u0648\u0636\u0639": 4048, "\u2581cross": 4049, "\u2581\u062d\u0631\u0643\u0629": 4050, "\u0627\u0636": 4051, "\u2581Bosnia": 4052, "\u0627\u0644\u0630\u064a": 4053, "\u2581city": 4054, "\u2581success": 4055, "\u2581minutes": 4056, "\u2581urban": 4057, "ism": 4058, "ang": 4059, "\u2581brother": 4060, "\u2581\u062f\u0648\u0644\u0627\u0631\u0627": 4061, "\u2581audit": 4062, "\u2581extreme": 4063, "\u2581\u0643\u062b\u064a\u0631\u0629": 4064, "\u2581\u0627\u0644\u0647\u0646\u062f": 4065, "\u0634\u0627\u0631": 4066, "\u2581Sea": 4067, "\u2581entire": 4068, "\u2581\u0643\u0646\u062f\u0627": 4069, "\u2581\u0623\u0631\u0628\u0639\u0629": 4070, "\u25811992": 4071, "\u2581mandates": 4072, "\u062e\u0630": 4073, "\u2581\u0623\u0633": 4074, "\u2581\u062a\u0628\u062f\u0648": 4075, "\u2581entry": 4076, "\u2581From": 4077, "\u2581Like": 4078, "66": 4079, "\u2581Rwanda": 4080, "out": 4081, "\u2581recovery": 4082, "\u2581\u062b\u0627\u0646\u064a\u0629": 4083, "\u2581\u062a\u0633\u0648\u064a\u0629": 4084, "\u0641\u0644": 4085, "\u2581\u0645\u0645\u062b\u0644\u064a": 4086, "\u2581\u0645\u0646\u0627\u0633\u0628\u0629": 4087, "\u2581Somalia": 4088, "\u2581\u0645\u062a\u0623\u0643\u062f": 4089, "\u2581\u0627\u0644\u0645\u062a\u0642\u062f\u0645\u0629": 4090, "ization": 4091, "\u2581\u0648\u062a\u0634\u0645\u0644": 4092, "\u2581\u0644\u0643\u0641\u0627\u0644\u0629": 4093, "\u2581movement": 4094, "\u0642\u0627\u062a\u0644": 4095, "lt": 4096, "\u2581negative": 4097, "\u2581\u0627\u0646\u0643": 4098, "\u2581\u0627\u062a\u0641\u0627\u0642\u0627\u062a": 4099, "\u2581focused": 4100, "\u2581\u0627\u0644\u0643": 4101, "\u2581\u0645\u0639\u062f\u0644\u0627\u062a": 4102, "\u2581disaster": 4103, "\u2581Authority": 4104, "\u2581\u0627\u0644\u0644\u063a\u0627\u062a": 4105, "\u2581growing": 4106, "ness": 4107, "\u2581languages": 4108, "ING": 4109, "\u2581thinking": 4110, "\u2581\u064a\u0628\u0644\u063a": 4111, "\u2581seven": 4112, "\u2581stressed": 4113, "\u2581\u0627\u0644\u0645\u062f\u0631\u062c\u0629": 4114, "\u2581\u0644\u0644\u062f\u0648\u0644\u0629": 4115, "\u2581racial": 4116, "\u2581\u062b\u0645\u0629": 4117, "\u2581average": 4118, "\u2581aim": 4119, "\u0643\u0633": 4120, "\u2581\u062a\u0648\u0627\u062c\u0647": 4121, "\u2581\u0623\u0633\u0644\u062d\u0629": 4122, "\u2581\u062c\u0631\u064a\u0645\u0629": 4123, "\u0627\u0646\u064a": 4124, "\u2581\u0627\u0644\u062e\u0635\u0648\u0635": 4125, "\u2581500": 4126, "\u2581\u0632\u0648\u062c": 4127, "\u2581\u0623\u0631\u062c\u0648": 4128, "@": 4129, "\u25812009.": 4130, "\u2581die": 4131, "\u2581\u0633\u0643\u0627\u0646": 4132, "\u2581fire": 4133, "\u2581intended": 4134, "\u2581\u0648\u0643\u0627\u0644\u0627\u062a": 4135, "\u2581Kuwait": 4136, "\u2581\u0648\u0627\u0644\u062a\u0643\u0646\u0648\u0644\u0648\u062c\u064a\u0627": 4137, "\u2581\u0643\u0648\u0628\u0627": 4138, "\u2581Third": 4139, "\u2581prepare": 4140, "\u2581\u0646\u0635\u0641": 4141, "rs": 4142, "\u2581\u0644\u0644\u0637\u0627\u0642\u0629": 4143, "\u2581\u0627\u0644\u0623\u062d\u062f\u0627\u062b": 4144, "\u2581Sierra": 4145, "\u2581\u0622\u0631\u0627\u0621": 4146, "\u0627\u062a\u0641\u0627\u0642\u064a\u0629": 4147, "\u2581\u0623\u0631\u062f\u062a": 4148, "/20": 4149, "\u2581\u0648\u0627\u0644\u0645\u064a\u0632\u0627\u0646\u064a\u0629": 4150, "\u2581\u0648\u0644\u0642\u062f": 4151, "\u2581\u0627\u0644\u0634\u0631\u0627\u0643\u0629": 4152, "\u2581donors": 4153, "\u2581\u0625\u0637\u0644\u0627\u0642": 4154, "les": 4155, "\u2581\u0627\u0644\u062a\u0637\u0648\u0631\u0627\u062a": 4156, "\u25812001\u060c": 4157, "\u2581\u0648\u0627\u0644\u0628\u0631\u0627\u0645\u062c": 4158, "HRC": 4159, "\u0641\u0642": 4160, "\u2581construction": 4161, "\u2581Two": 4162, "mm": 4163, "he": 4164, "\u2581network": 4165, "\u2581\u0628\u0627\u0628": 4166, "\u2581\u0627\u0644\u0636\u062d\u0627\u064a\u0627": 4167, "\u2581UNFPA": 4168, "\u2581Operations": 4169, "\u2581freedoms": 4170, "\u2581\u0644\u0628\u0646\u0627\u0646": 4171, "\u2581\u0646\u0627\u0626\u0628": 4172, "\u2581summary": 4173, "\u2581\u0627\u0644\u0635\u0631\u0627\u0639\u0627\u062a": 4174, "\u2581\u0639\u0628\u0627\u0631\u0629": 4175, "\u2581Palestine": 4176, "\u2581timely": 4177, "\u2581conclusions": 4178, "\u2581transparency": 4179, "\u2581\u0623\u0646\u0648\u0627\u0639": 4180, "\u2581statistics": 4181, "\u2581\u0627\u0644\u0645\u0628\u0627\u0634\u0631": 4182, "\u2581\u0627\u0639\u062a\u0645\u062f": 4183, "her": 4184, "\u2581myself": 4185, "\u2581\u0648\u0627\u0644\u062a\u062f\u0631\u064a\u0628": 4186, "\u2581\u062f\u0644\u064a\u0644": 4187, "\u2581Further": 4188, "www": 4189, "\u2581\u0627\u0644\u0645\u0634\u0627\u0648\u0631\u0627\u062a": 4190, "\u2581\u0627\u0644\u0644\u062c\u0627\u0646": 4191, "\u2581involvement": 4192, "\u2581\u0644\u0644\u062d\u0635\u0648\u0644": 4193, "\u2581approval": 4194, "\u2581\u062a\u0642\u0631\u064a\u0631\u0647\u0627": 4195, "\u2581\u0645\u0631\u0627\u0642\u0628\u0629": 4196, "\u2581Fifth": 4197, "\u2581Weapons": 4198, "ted": 4199, "\u25812000\u060c": 4200, "\u2581formal": 4201, "\u2581\u0628\u0627\u0644\u0646\u064a\u0627\u0628\u0629": 4202, "\u2581\u0633\u064a\u0627\u062f\u0629": 4203, "\u2581\u064a\u0639\u062a\u0628\u0631": 4204, "\u2581\u0623\u0643\u0648\u0646": 4205, "\u2581\u062a\u0648\u0635\u064a": 4206, "\u2581\u0643\u0648\u0646": 4207, "\u2581\u0627\u0644\u0623\u0635\u0644\u064a\u064a\u0646": 4208, "\u0632\u064a": 4209, "\u2581\u0627\u0644\u0645\u0627\u0646\u062d\u0629": 4210, "\u2581commercial": 4211, "\u25811991": 4212, "\u2581\u0627\u0644\u0645\u0639\u0647\u062f": 4213, "\u2581host": 4214, "\u2581occupied": 4215, "\u2581\u0627\u0644\u0634\u0623\u0646": 4216, "\u062f\u0631\u064a": 4217, "\u2581System": 4218, "\u0632\u0645": 4219, "\u2581avoid": 4220, "\u2581phone": 4221, "\u2581\u0627\u0633\u062a\u0631\u0627\u062a\u064a\u062c\u064a\u0627\u062a": 4222, "\u064a\u062a\u064a": 4223, "\u2581\u062a\u0623\u062e\u0630": 4224, "\u2581\u0628\u0647\u0645": 4225, "\u2581hands": 4226, "\u2581\u062b\u0627\u0644\u062b\u0627": 4227, "\u062e\u0631": 4228, "\u2581reflect": 4229, "\u2581\u0648\u0627\u0644\u0644\u062c\u0646\u0629": 4230, "\u2581\u0645\u0648\u062c\u0632": 4231, "\u2581Rules": 4232, "\u2581\u0628\u0623\u0633": 4233, "\u2581\u0623\u0637\u0641\u0627\u0644": 4234, "\u0642\u0631": 4235, "men": 4236, "\u2581island": 4237, "\u2581\u0627\u0644\u062f\u0648\u0631\u064a": 4238, "\u2581\u0627\u0644\u0632\u0631\u0627\u0639\u064a\u0629": 4239, "\u062c\u062f": 4240, "\u2581road": 4241, "\u2581company": 4242, "/63/": 4243, "\u2581\u0627\u0644\u062a\u0634\u0631\u064a\u0639\u0627\u062a": 4244, "\u2581broad": 4245, "\u2581\u0627\u0644\u062a\u062c\u0627\u0631\u064a": 4246, "we": 4247, "\u2581\u0627\u0644\u062f\u0648\u0631": 4248, "\u2581elected": 4249, "\u2581\u062a\u0634\u0639\u0631": 4250, "\u2581sense": 4251, "\u2581Corr": 4252, "\u2581Ambassador": 4253, "\u2581Leone": 4254, "\u2581democratic": 4255, "\u2581\u0627\u0644\u0623\u062e\u064a\u0631": 4256, "\u2581\u062c\u062f": 4257, "\u2581Financial": 4258, "\u2581\u0630\u0627\u062a\u0647": 4259, "\u2581caused": 4260, "\u2581wants": 4261, "of": 4262, "\u2581\u0644\u0644\u062a": 4263, "\u2581\u0641\u0644\u0627": 4264, "\u2581\u0627\u0644\u0637\u0628\u064a\u0629": 4265, "\u2581respond": 4266, "\u2581alternative": 4267, "\u2581\u0627\u0644\u0645\u0634\u0645\u0648\u0644\u0629": 4268, "\u2581\u0627\u0644\u0627\u0646\u062a\u0647\u0627\u0643\u0627\u062a": 4269, "\u2581absence": 4270, "9": 4271, "\u2581attacks": 4272, "\u2581\u0627\u0644\u062c\u0645\u0627\u0639\u0629": 4273, "\u2581\u0627\u0644\u0645\u0634\u0631\u0648\u0639\u0629": 4274, "\u2581\u0645\u0627\u0644\u064a\u0629": 4275, "\u2581\u0627\u0642\u062a\u0631\u0627\u062d": 4276, "\u2581truth": 4277, "\u0643\u0630\u0628": 4278, "\u062d\u0644": 4279, "\u2581\u0622": 4280, "\u2581\u0627\u0644\u062c\u0646\u0633\u0627\u0646\u064a\u0629": 4281, "\u2581\u0627\u0644\u0627\u0646\u062a\u0642\u0627\u0644\u064a\u0629": 4282, "\u2581\u0645\u0633\u0627\u0639\u062f": 4283, "\u2581\u0627\u0644\u062e\u0627\u0645\u0633": 4284, "\u2581\u0644\u062a\u0644\u0643": 4285, "\u062a\u0630\u0643\u0631": 4286, "\u2581\u062a\u0631\u0643": 4287, "\u2581\u0648\u0627\u0644\u0639\u062f\u0627\u0644\u0629": 4288, "\u2581\u0627\u0644\u0631\u0633\u0645\u064a": 4289, "\u2581month": 4290, "\u2581\u0628\u0627\u0644\u0623": 4291, "\u2581\u0628\u0642\u062f\u0631": 4292, "\u2581Technical": 4293, "\u2581followed": 4294, "\u062d\u0628": 4295, "\u2581\u0645\u062f": 4296, "\u2581deployment": 4297, "\u258175": 4298, "\u2581\u0627\u0644\u0646\u0632\u0627\u0639": 4299, "\u2581\u0627\u0644\u0644\u0627\u0632\u0645": 4300, "\u2581\u0627\u0644\u062a\u0635\u062f\u064a\u0642": 4301, "\u2581possibility": 4302, "\u2581cooperate": 4303, "\u258168": 4304, "\u2581\u0627\u0647\u062a\u0645\u0627\u0645": 4305, "\u2581\u0627\u0644\u0647": 4306, "\u2581Herzegovina": 4307, "\u2581\u0627\u0644\u062a\u0646\u0638\u064a\u0645\u064a\u0629": 4308, "\u2581closely": 4309, "\u2581\u062a\u0648\u0632\u064a\u0639": 4310, "\u2581confidence": 4311, "\u2581\u062c\u0648": 4312, "\u2581\u0627\u0644\u0639\u062f\u062f": 4313, "\u2581Cultural": 4314, "\u2581\u0642\u0648\u0627\u0646\u064a\u0646": 4315, "\u2581\u0627\u0644\u062c\u0627\u0631\u064a\u0629": 4316, "40": 4317, "\u2581\u0645\u062f\u0629": 4318, "\u0627\u0644\u0645\u0627\u062f\u0629": 4319, "ina": 4320, "\u2581\u0627\u0644\u0625\u062c\u0645\u0627\u0644\u064a": 4321, "\u2581\u062f\u0648\u0644\u064a": 4322, "\u2581Pro": 4323, "\u2581\u0631\u062c\u0627\u0644": 4324, "\u2581dealing": 4325, "\u2581\u0628\u0623\u0646\u0647\u0627": 4326, "\u2581operating": 4327, "\u2581\u0634\u0647\u0631": 4328, "\u2581Chair": 4329, "\u2581\u0627\u0644\u0646\u0647\u0627\u0626\u064a": 4330, "\u2581improvement": 4331, "\u2581Research": 4332, "\u2581offer": 4333, "\u2581forty": 4334, "\u2581\u0625\u062f\u0645\u0627\u062c": 4335, "\u2581speak": 4336, "\u2581\u062a\u0633\u0627\u0639\u062f": 4337, "\u2581\u0627\u0644\u0641\u0631\u0635\u0629": 4338, "\u2581\u0641\u0625\u0646\u0647\u0627": 4339, "\u2581\u062a\u0642\u0639": 4340, "\u2581hurt": 4341, "\u2581\u0627\u0644\u0639\u0645\u0627\u0644": 4342, "\u2581Egypt": 4343, "\u2581\u062a\u062d\u064a\u0637": 4344, "\u2581\u0627\u0644\u0645\u0633\u062a\u0648\u064a\u0627\u062a": 4345, "60": 4346, "hi": 4347, "\u2581\u0628\u062e\u0635\u0648\u0635": 4348, "\u2581\u0627\u0644\u0646\u0647\u0648\u0636": 4349, "\u2581behind": 4350, "\u2581\u0645\u0634": 4351, "\u2581sea": 4352, "do": 4353, "ial": 4354, "\u0632\u0639": 4355, "\u2581\u0625\u0642\u0644\u064a\u0645\u064a\u0629": 4356, "\u2581NGOs": 4357, "\u2581\u062a\u0628\u0644\u063a": 4358, "\u2581\u062d\u062f\u0629": 4359, "\u2581\u062f\u0642\u064a\u0642\u0629": 4360, "\u2581\u0645\u0628\u0627\u062f\u0631\u0629": 4361, "\u2581\u062d\u0643\u0645": 4362, "\u2581skills": 4363, "\u2581\u0627\u0644\u0635\u0646\u0627\u0639\u064a\u0629": 4364, "\u25813,": 4365, "\u2581useful": 4366, "17": 4367, "\u2581\u0627\u0644\u0645\u0648\u0636\u0648\u0639\u064a\u0629": 4368, "\u0627\u0634": 4369, "\u0622\u0646": 4370, "\u2581\u062d\u0648\u0627\u0644\u064a": 4371, "\u2581\u0645\u062a\u0639\u062f\u062f\u0629": 4372, "\u2581target": 4373, "\u2581\u0648\u0627\u0633\u062a": 4374, "\u2581export": 4375, "\u2581\u0627\u0644\u0648\u0627\u0636\u062d": 4376, "\u2581\u0634\u0631\u0642": 4377, "\u2581\u0643\u064a\u0641\u064a\u0629": 4378, "\u2581Officer": 4379, "\u2581\u062c\u0631\u0627\u0626\u0645": 4380, "\u0634\u0631": 4381, "\u2581\u0628\u0644\u063a": 4382, "\u2581\u0623\u0645\u0646": 4383, "14": 4384, "\u2581Turkey": 4385, "\u063a\u064a": 4386, "\u2581ability": 4387, "\u0635\u0641": 4388, "\u2581multi": 4389, "\u2581relief": 4390, "\u2581\u0645\u0641\u0647\u0648\u0645": 4391, "\u2581lower": 4392, "\u2581difficulties": 4393, "\u2581electronic": 4394, "\u2581\u0627\u0644\u0625\u0636\u0627\u0641\u064a\u0629": 4395, "\u2581refugee": 4396, "\u2581\u0648\u062f\u0648\u0646": 4397, "\u2581Assistance": 4398, "\u2581\u0645\u0639\u0647\u0627": 4399, "\u2581door": 4400, "if": 4401, "\u2581assessments": 4402, "\u2581\u064a\u062e\u0635": 4403, "\u2581damage": 4404, "\u2581design": 4405, "\u2581\u0644\u0644\u0645\u0648\u0638\u0641\u064a\u0646": 4406, "\u2581Netherlands": 4407, "\u2581\u064a\u0643\u0641\u064a": 4408, "mon": 4409, "\u2581\u062a\u0630\u0647\u0628": 4410, "\u2581\u0628\u0644\u0627": 4411, "weapon": 4412, "\u2581\u062f\u0648\u0644\u064a\u0627": 4413, "\u2581\u062f\u0627\u0626\u0631\u0629": 4414, "\u0644\u0648": 4415, "\u2581\u0627\u0644\u0625\u0628\u0644\u0627\u063a": 4416, "UN": 4417, "\u2581\u0644\u0644\u0642\u0636\u0627\u0621": 4418, "\u2581\u0627\u0644\u0645\u062e\u062a\u0644\u0641\u0629": 4419, "\u2581\u0648\u062f\u0639\u0645": 4420, "\u2581\u0625\u064a": 4421, "\u2581\u0628\u0627\u0644\u0645\u062e\u062f\u0631\u0627\u062a": 4422, "\u2581\u0627\u0644\u062d\u0643\u0648\u0645\u064a": 4423, "ner": 4424, "ster": 4425, "\u2581cash": 4426, "\u2581\u0643\u0627\u0645\u0644\u0629": 4427, "\u2581\u0627\u0644\u0633\u0641\u0631": 4428, "\u2581concrete": 4429, "ful": 4430, "\u0633\u0646": 4431, "\u2581Ho": 4432, "\u2581\u062c\u0647\u0648\u062f\u0647\u0627": 4433, "\u2581\u0627\u0644\u0645\u0648\u062c\u0648\u062f\u0629": 4434, "\u2581professional": 4435, "\u0646\u0632\u0644": 4436, "\u2581measure": 4437, "\u2581\u0627\u0644\u062e\u0637\u0648\u0627\u062a": 4438, "\u2581membership": 4439, "\u2581\u062a\u0634\u062c\u0639": 4440, "\u0646\u0648\u0646": 4441, "\u2581enhancing": 4442, "go": 4443, "raz": 4444, "\u2581\u0633\u062a\u0629": 4445, "\u2581haven": 4446, "\u2581forced": 4447, "\u2581rehabilitation": 4448, "\u2581\u062a\u062d\u062f\u062b": 4449, "\u2581\u0627\u0644\u0645\u0648\u0627\u0641\u0642\u0629": 4450, "\u2581\u0628\u0645\u0646": 4451, "\u2581\u0645\u062e": 4452, "\u2581\u0648\u0627\u0644\u0633\u064a\u062f": 4453, "\u2581\u0623\u0639\u0637\u064a": 4454, "\u2581\u0639\u0627\u062f\u0629": 4455, "\u2581\u0627\u0644\u0623\u0642\u0644\u064a\u0627\u062a": 4456, "\u2581\u0648\u0645\u0646\u0637\u0642\u0629": 4457, "\u2581planned": 4458, "\u2581expertise": 4459, "\u064a\u0644\u064a": 4460, "\u2581conventions": 4461, "\u2581\u062a\u0642\u0631\u064a\u0631\u0647": 4462, "\u2581\u0627\u0644\u0645\u0628\u0630\u0648\u0644\u0629": 4463, "\u2581\u062f\u0648\u0644\u0627\u0631\u0627\u062a": 4464, "\u2581\u0627\u0644\u0635\u0648\u0645\u0627\u0644": 4465, "\u2581occupation": 4466, "\u2581probably": 4467, "\u064a\u0631\u0627": 4468, "\u2581immediate": 4469, "\u2581Bureau": 4470, "\u2581\u0645\u064a\u0632\u0627\u0646\u064a\u0629": 4471, "\u2581written": 4472, "\u0637\u0644\u0642": 4473, "\u2581\u062c\u0627\u0621": 4474, "\u2581\u0627\u0644\u0623\u0648\u0644\u064a\u0629": 4475, "\u2581\u0627\u0644\u0632\u0648\u0627\u062c": 4476, "\u2581tools": 4477, "\u2581\u0644\u062d\u0641\u0638": 4478, "\u2581\u0645\u0639\u0631\u0641\u0629": 4479, "\u2581documentation": 4480, "CONF": 4481, "\u2581happy": 4482, "\u2581\u0643\u0627\u0641": 4483, "\u2581described": 4484, "\u2581\u0641\u0631\u0646\u0633\u0627": 4485, "\u2581\u062a\u0646\u0627\u0648\u0644": 4486, "\u2581forest": 4487, "\u2581\u0627\u0639\u062a": 4488, "\u2581happen": 4489, "\u2581companies": 4490, "\u2581definition": 4491, "\u0648\u0629": 4492, "\u2581\u0648\u0627\u0644\u0625\u0642\u0644\u064a\u0645\u064a\u0629": 4493, "\u2581undertake": 4494, "\u2581\u0639\u0627\u0644\u0645": 4495, "\u2581\u0627\u0644\u062c\u0648\u0627\u0646\u0628": 4496, "\u2581holding": 4497, "our": 4498, "\u2581Islands": 4499, "\u2581\u0628\u0644\u062f\u0627": 4500, "\u2581committee": 4501, "\u2581net": 4502, "50": 4503, "\u2581\u0645\u0646\u0632\u0644": 4504, "\u2581\u0627\u0644\u0645\u0624\u0631\u062e\u0629": 4505, "\u2581\u0639\u0644\u0627\u0642\u0629": 4506, "\u2581Vice": 4507, "\u2581\u0648\u0627\u0644\u0623\u0631\u0628\u0639\u064a\u0646": 4508, "\u064a\u0647\u0627": 4509, "\u2581likely": 4510, "\u2581\u0627\u0644\u0645\u0644\u0643\u064a\u0629": 4511, "\u2581\u0627\u0644\u0648\u0639\u064a": 4512, "\u2581express": 4513, "\u2581\u062c\u0648\u0627\u0646\u0628": 4514, "\u2581\u062a\u0639\u0645\u064a\u0645": 4515, "\u0631\u0627\u0631": 4516, "\u2581\u0625\u0646\u0641\u0627\u0630": 4517, "\u2581\u0645\u0644\u0627\u064a\u064a\u0646": 4518, "\u0628\u0637": 4519, "\u2581\u0648\u0627\u0644\u062a\u0639\u0644\u064a\u0645": 4520, "\u2581encourages": 4521, "\u2581\u0627\u0644\u0645\u0633": 4522, "\u2581\u0645\u062c": 4523, "pe": 4524, "\u2581\u0646\u0638\u0631\u062a": 4525, "\u2581\u0648\u062d\u062a\u0649": 4526, "\u2581origin": 4527, "\u2581marriage": 4528, "\u2581\u0623\u0645\u0627\u0643\u0646": 4529, "\u2581\u0627\u0644\u0639\u0646\u0635\u0631\u064a\u0629": 4530, "\u2581\u0627\u0644\u0646\u0627\u0634\u0626\u0629": 4531, "\u2581\u0627\u0644\u0645\u0644\u062d\u0642": 4532, "resolution": 4533, "\u2581concept": 4534, "\u2581actively": 4535, "\u0639\u062a\u0642\u062f": 4536, "/201": 4537, "\u0647\u0648": 4538, "\u2581\u0627\u0644\u0623\u0633\u0627\u0633": 4539, "\u2581leading": 4540, "\u2581\u062c\u0627\u0645\u0639\u0629": 4541, "\u2581\u0627\u0644\u0633\u0644\u0645\u064a\u0629": 4542, "\u2581despite": 4543, "\u2581\u0627\u0644\u0645\u0646\u0627\u0642\u0634\u0627\u062a": 4544, "\u2581\u062a\u062d\u0645\u0644": 4545, "\u2581extended": 4546, "\u0645\u0633\u0623\u0644\u0629": 4547, "\u2581\u0623\u0631\u0628\u0639": 4548, "\u0633\u0644": 4549, "\u2581\u0631\u062f": 4550, "\u2581\u0648\u0627\u0644\u0639\u0645\u0644": 4551, "\u2581\u0627\u0644\u062c\u0645\u0627\u0639\u064a\u0629": 4552, "\u2581agricultural": 4553, "\u2581\u0627\u0644\u0645\u0633\u062a\u0642\u0644\u0629": 4554, "\u2581\u0623\u0639\u062f": 4555, "\u062a\u0643\u0645": 4556, "\u2581\u0661\u0663": 4557, "\u2581minimum": 4558, "\u2581generally": 4559, "\u2581Stop": 4560, "\u2581\u0627\u0644\u062a\u0634\u0631\u064a\u0639\u064a\u0629": 4561, "\u2581\u0631\u0623\u064a\u062a": 4562, "\u2581Western": 4563, "\u2581\u0662\u0661": 4564, "\u2581hit": 4565, "80": 4566, "gu": 4567, "\u0636\u062d\u0643": 4568, "\u2581\u0643\u0644\u0645\u0629": 4569, "\u2581inform": 4570, "\u2581\u0627\u0644\u0627\u062a\u0641\u0627\u0642\u0627\u062a": 4571, "\u2581model": 4572, "\u2581\u0645\u0624\u0633\u0633\u0629": 4573, "\u2581\u062f\u064a\u0641\u0648\u0627\u0631": 4574, "\u2581markets": 4575, "\u2581weeks": 4576, "\u2581floor": 4577, "\u2581\u0627\u0644\u0648\u0641\u0627\u0621": 4578, "\u2581Italy": 4579, "\u2581offences": 4580, "\u2581Strategy": 4581, "\u2581Experts": 4582, "\u2581Yugoslavia": 4583, "\u2581Territories": 4584, "\u2581democracy": 4585, "\u2581\u0627\u0644\u062a\u0631\u062a\u064a\u0628\u0627\u062a": 4586, "\u2581blood": 4587, "\u2581\u0645\u062b\u0644\u0627": 4588, "\u2581\u062a\u0648\u0635\u064a\u0629": 4589, "land": 4590, "\u0637\u0641": 4591, "$": 4592, "\u2581\u0627\u062d\u062f": 4593, "\u2581Ma": 4594, "\u2581payment": 4595, "\u2581\u0627\u0644\u0623\u0642\u0627\u0644\u064a\u0645": 4596, "\u2581\u0634\u062e\u0635\u0627": 4597, "\u2581\u062d\u062c\u0645": 4598, "\u2581\u0627\u0644\u0623\u0643\u062b\u0631": 4599, "\u2581\u0627\u0644\u0625\u0633\u0631\u0627\u0626\u064a\u0644\u064a\u0629": 4600, "\u2581\u0627\u0644\u0643\u0628\u0631\u0649": 4601, "\u0641\u0627": 4602, "\u2581\u0627\u0644\u0623\u0634\u064a\u0627\u0621": 4603, "\u2581\u062e\u0637\u0631": 4604, "\u2581Zealand": 4605, "\u2581Financing": 4606, "\u2581shot": 4607, "\u2581\u0627\u0644\u0634\u0627\u0645\u0644\u0629": 4608, "\u2581\u0644\u0644\u062c\u0645\u064a\u0639": 4609, "\u2581\u062f\u0631\u062c\u0629": 4610, "\u2581giving": 4611, "\u2581\u064a\u0646\u0638\u0631": 4612, "\u2581\u0637\u0644\u0628\u0627\u062a": 4613, "\u2581\u0627\u0644\u0646\u0648\u0639": 4614, "\u2581\u0633\u0644\u0637\u0629": 4615, "\u0635\u0644": 4616, "\u2581\u0645\u062d\u0644": 4617, "\u2581advance": 4618, "\u2581\u0627\u0644\u0627\u062d\u062a\u062c\u0627\u0632": 4619, "\u2581Space": 4620, "\u0633\u0629": 4621, "\u2581\u0627\u0644\u0628\u0648\u0633\u0646\u0629": 4622, "\u2581paras": 4623, "\u2581\u0627\u0644\u0645\u0643\u0633\u064a\u0643": 4624, "\u2581launched": 4625, "\u2581\u0627\u0644\u0645\u062c\u0645\u0648\u0639\u0627\u062a": 4626, "day": 4627, "\u2581workshops": 4628, "\u062c\u0632": 4629, "\u0628\u0639\u062b\u0629": 4630, "\u0639\u0627\u062f": 4631, "\u2581placed": 4632, "\u2581\u0633\u0628\u0642": 4633, "\u2581worked": 4634, "\u2581\u0644\u0644\u0623\u0633\u0644\u062d\u0629": 4635, "\u2581\u0644\u0644\u0645\u062d\u0643\u0645\u0629": 4636, "\u2581\u0641\u0636\u0644\u0643": 4637, "\u2581migration": 4638, "\u2581territories": 4639, "\u2581\u0645\u0642\u062f\u0645": 4640, "\u25812009,": 4641, "\u2581finance": 4642, "\u2581efficient": 4643, "16": 4644, "\u2581\u0627\u0644\u0645\u062f\u064a\u0646\u0629": 4645, "\u2581\u0639\u0645\u0644\u0647": 4646, "\u2581\u0660\u0660\u0660": 4647, "\u2581\u0639\u0645": 4648, "\u2581\u0639\u0636\u0648\u0627": 4649, "\u2581combating": 4650, "\u0626\u0629": 4651, "third": 4652, "\u2581recruitment": 4653, "\u2581\u0627\u0644\u062f\u064a\u0648\u0646": 4654, "\u2581religion": 4655, "\u2581\u0648\u0642\u0627\u0644\u062a": 4656, "\u2581\u062a\u0633\u062c\u064a\u0644": 4657, "\u2581fourth": 4658, "\u2581Indonesia": 4659, "\u0647\u062c": 4660, "\u2581base": 4661, "\u2581recognition": 4662, "\u2581whom": 4663, "\u2581\u0648\u0628\u064a\u0646": 4664, "\u2581Training": 4665, "\u2581\u0633\u0627\u0639\u0629": 4666, "\u2581defined": 4667, "\u2581\u0628\u0627\u0644\u0646\u0638\u0631": 4668, "\u2581tried": 4669, "\u2581\u0627\u0644\u0623\u0633\u0631": 4670, "\u2581\u0644\u0644\u0645\u0624\u062a\u0645\u0631": 4671, "\u2581allowed": 4672, "\u2581compared": 4673, "\u2581\u0627\u0644\u062c\u0646\u0633\u0627\u0646\u064a": 4674, "\u2581\u062f\u0627\u062e\u0644\u064a\u0627": 4675, "\u2581\u0627\u0644\u0623\u0635\u0648\u0644": 4676, "\u2581donor": 4677, "\u2581Many": 4678, "\u2581\u0628\u0627\u0644\u0643\u0627\u0645\u0644": 4679, "\u2581(3)": 4680, "\u2581causes": 4681, "\u2581\u0635\u063a\u064a\u0631\u0629": 4682, "\u2581shared": 4683, "ice": 4684, "\u2581\u0627\u0644\u0631\u0641\u064a\u0639": 4685, "\u2581Spain": 4686, "\u2581\u0627\u0644\u0634\u0631\u0643\u0627\u0621": 4687, "\u0637\u0644": 4688, "\u2581urges": 4689, "\u2581stuff": 4690, "\u2581\u0645\u062f\u064a\u0646\u0629": 4691, "\u2581punishment": 4692, "\u2581oil": 4693, "\u2581\u0628\u0625\u0646\u0634\u0627\u0621": 4694, "\u2581John": 4695, "\u2581\u0627\u0644\u0623\u0633\u0648\u0627\u0642": 4696, "\u2581determine": 4697, "ou": 4698, "\u2581immediately": 4699, "\u2581enhanced": 4700, "\u2581estimates": 4701, "\u2581\u0628\u0628\u064a\u0627\u0646": 4702, "\u2581\u0648\u0636\u0639\u062a": 4703, "\u0644\u0628": 4704, "\u2581\u0625\u064a\u0644\u0627\u0621": 4705, "\u2581\u0628\u0645\u0628\u0644\u063a": 4706, "ard": 4707, "\u2581Tell": 4708, "\u2581knows": 4709, "\u2581\u062e\u0628\u0631\u0627\u0621": 4710, "ru": 4711, "\u2581\u0648\u0627\u0636\u062d\u0629": 4712, "\u2581\u0648\u0643\u0644": 4713, "\u2581Gender": 4714, "\u2581Northern": 4715, "\u2581\u0628\u064a\u0626\u0629": 4716, "\u2581\u0627\u0646\u062e\u0641\u0627\u0636": 4717, "\u2581\u064a\u062a\u0637\u0644\u0628": 4718, "led": 4719, "\u2581Jo": 4720, "\u2581shown": 4721, "\u2581\u0627\u0646\u062a\u0647\u0627\u0621": 4722, "\u2581\u0627\u0644\u0628\u0639\u0636": 4723, "\u2581\u0627\u0644\u0627\u0639\u062a\u0631\u0627\u0641": 4724, "\u2581\u0661\u0664": 4725, "\u2581election": 4726, "\u2581\u062d\u064a": 4727, "\u2581\u0641\u0647\u064a": 4728, "\u2581discuss": 4729, "\u062f\u0627\u0631": 4730, "\u2581\u0627\u0644\u062c\u0648\u064a\u0629": 4731, "\u2581senior": 4732, "\u2581\u062e\u0641\u0636": 4733, "\u2581\u0642\u0645\u062a": 4734, "\u0644\u0645\u0633\u0627\u0639\u062f\u0629": 4735, "\u2581\u0631\u0624\u0633\u0627\u0621": 4736, "rd": 4737, "\u2581\u0623\u0646\u0638\u0631": 4738, "\u2581separate": 4739, "\u064a\u0648\u0646": 4740, "\u2581\u062a\u0645\u0631": 4741, "\u2581\u0625\u0642\u0631\u0627\u0631": 4742, "\u2581nor": 4743, "\u2581\u062a\u0630\u0643\u0631": 4744, "\u2581looks": 4745, "\u2581Cyprus": 4746, "\u2581\u0641\u0639\u0627\u0644": 4747, "\u2581Technology": 4748, "IN": 4749, "\u2581\u0627\u0644\u0625\u062f\u0627\u0631\u064a": 4750, "\u2581coordinated": 4751, "\u2581accounts": 4752, "\u2581arrest": 4753, "\u2581\u0627\u0644\u062c\u0645\u0627\u0639\u0627\u062a": 4754, "\u2581grounds": 4755, "\u2581\u0623\u0644\u0645\u0627\u0646\u064a\u0627": 4756, "da": 4757, "\u2581\u064a\u0633\u0645\u062d": 4758, "/4": 4759, "\u2581\u0627\u0644\u0635\u062d\u064a": 4760, "\u2581\u0644\u062a\u062d\u062f\u064a\u062f": 4761, "\u2581engaged": 4762, "\u2581\u0627\u0644\u0645\u0637\u0644\u0648\u0628\u0629": 4763, "\u2581\u063a\u0631\u0628": 4764, "\u2581medium": 4765, "\u2581\u0628\u0627\u0644\u0639\u0645\u0644": 4766, "\u2581\u0627\u0644\u0625\u0644\u0643\u062a\u0631\u0648\u0646\u064a": 4767, "\u2581Ni": 4768, "\u2581\u0627\u0644\u0641\u0644\u0633\u0637\u064a\u0646\u064a\u064a\u0646": 4769, "\u2581\u064a\u062f\u0639\u0648": 4770, "\u2581Liberia": 4771, "\u2581\u0627\u0644\u062a\u0632\u0627\u0645\u0627\u062a": 4772, "\u2581participated": 4773, "\u2581\u0627\u0644\u0641\u0626\u0627\u062a": 4774, "\u25812010.": 4775, "\u2581workshop": 4776, "\u2581\u0625\u0628": 4777, "\u2581Lord": 4778, "\u2581unless": 4779, "\u2581Peacekeeping": 4780, "\u2581http": 4781, "\u2581students": 4782, "\u2581urged": 4783, "\u2581Decides": 4784, "\u2581UNIDO": 4785, "\u2581constitute": 4786, "\u2581internationally": 4787, "\u2581spirit": 4788, "\u2581imposed": 4789, "\u2581\u0648\u0627\u0644\u062a\u0645\u064a\u064a\u0632": 4790, "\u2581strengthened": 4791, "\u2581assess": 4792, "\u2581town": 4793, "\u2581\u063a\u064a\u0646\u064a\u0627": 4794, "\u2581\u062a\u0623\u062b\u064a\u0631": 4795, "\u2581\u0648\u0627\u0644\u062a\u0646\u0633\u064a\u0642": 4796, "\u2581reviewed": 4797, "\u2581\u0642\u0627\u0646\u0648\u0646\u064a": 4798, "\u2581aircraft": 4799, "\u2581\u0627\u0644\u0645\u0645\u062a\u0644\u0643\u0627\u062a": 4800, "\u2581drugs": 4801, "\u2581\u0627\u0644\u0645\u0639\u062f\u0627\u062a": 4802, "\u2581actual": 4803, "\u2581\u0627\u0644\u0645\u062a\u0641\u0642": 4804, "\u2581\u0627\u0644\u0633\u062c\u0646": 4805, "\u2581\u062b": 4806, "ities": 4807, "0": 4808, "\u2581interested": 4809, "\u064a\u0643\u0627": 4810, "\u2581\u0627\u0644\u062a\u0641\u062a\u064a\u0634": 4811, "\u2581\u0627\u0644\u0648\u0627\u062c\u0628": 4812, "\u2581\u0622\u0646": 4813, "\u0631\u0636": 4814, "\u2581\u0631\u0639\u0627\u064a\u0629": 4815, "\u2581\u0634\u0631": 4816, "\u2581site": 4817, "\u2581\u062f\u0648\u0631\u0627\u062a": 4818, "\u2581Switzerland": 4819, "CP": 4820, "\u2581\u062a\u062d\u0642\u0642": 4821, "\u2581\u0645\u0642\u0631\u0631": 4822, "\u2581determined": 4823, "\u2581\u0623\u062f\u0649": 4824, "\u258173": 4825, "\u0633\u062a\u0631": 4826, "\u2581\u062a\u064a\u0645\u0648\u0631": 4827, "\u2581husband": 4828, "\u2581Mrs": 4829, "67": 4830, "\u2581headquarters": 4831, "\u2581\u0627\u0644\u0642\u0637\u0627\u0639\u0627\u062a": 4832, "ens": 4833, "\u2581\u0627\u0644\u0625\u0639\u062f\u0627\u0645": 4834, "\u2581raise": 4835, "\u0631\u062c": 4836, "\u062d\u0631": 4837, "\u2581declaration": 4838, "\u2581\u064a\u0624\u0643\u062f": 4839, "ey": 4840, "\u2581Mom": 4841, "\u2581\u0627\u0644\u0647\u064a\u0627\u0643\u0644": 4842, "\u2581\u0627\u0644\u0645\u0628\u0627\u062f\u0631\u0629": 4843, "\u0631\u0627\u0641": 4844, "\u2581\u0623\u0633\u0628\u0627\u0628": 4845, "\u2581\u062a\u062c\u0627\u0647": 4846, "\u2581records": 4847, "\u0639\u0646\u062f\u0645\u0627": 4848, "\u2581\u0627\u0644\u0643\u0627\u0645\u0644\u0629": 4849, "\u0633\u0627\u0645": 4850, "\u2581wide": 4851, "\u2581reduced": 4852, "\u2581inclusion": 4853, "\u0631\u0633": 4854, "\u2581\u0627\u0644\u062e\u0627\u0631\u062c": 4855, "\u2581\u0627\u0644\u0633\u0646": 4856, "\u2581le": 4857, "\u2581\u0648\u0627\u0633\u0639\u0629": 4858, "\u2581\u0627\u0644\u0645\u0646\u062a\u062f\u0649": 4859, "\u2581\u062a\u0639\u0631\u064a\u0641": 4860, "\u2581Sir": 4861, "\u2581options": 4862, "\u062a\u0627\u0628\u0639": 4863, "\u2581\u0628\u0646\u062f": 4864, "\u064a\u062a\u0647": 4865, "\u2581\u0648\u0627\u0644\u0645\u062d\u064a\u0637": 4866, "70": 4867, "\u2581history": 4868, "\u2581\u0630\u064a": 4869, "\u2581emphasized": 4870, "-5": 4871, "\u2581types": 4872, "ab": 4873, "\u2581threats": 4874, "\u2581\u0627\u0644\u0645\u0628\u062f\u0623": 4875, "\u2581\u0623\u0635\u0644": 4876, "\u2581supposed": 4877, "\u2581\u0648\u0627\u0644\u0627\u062a\u062d\u0627\u062f": 4878, "\u2581stand": 4879, "\u2581collection": 4880, "\u2581alleged": 4881, "\u2581\u0628\u0639\u0645\u0644": 4882, "\u2581\u0644\u0623\u062c\u0644": 4883, "\u25814-": 4884, "\u2581\u0627\u0644\u0647\u0627\u0645\u0629": 4885, "\u2581\u0645\u0633\u062a": 4886, "\u2581type": 4887, "\u2581Framework": 4888, "time": 4889, "\u2581accepted": 4890, "\u2581\u0627\u0644\u0623\u0632\u0645\u0629": 4891, "\u2581\u062a\u0624\u062b\u0631": 4892, "\u2581complex": 4893, "\u2581comes": 4894, "\u2581\u0627\u0630\u0647\u0628": 4895, "\u2581\u062a\u0639\u0631\u0636": 4896, "\u062c\u0639\u0644": 4897, "\u2581boys": 4898, "\u2581\u0627\u0644\u062c\u0646\u0627\u0626\u064a": 4899, "\u2581\u062e\u062f\u0645\u0629": 4900, "\u2581\u062a\u062a\u0635\u0644": 4901, "\u0633\u0645": 4902, "\u2581\u0633\u0631": 4903, "\u2581owing": 4904, "\u2581solutions": 4905, "\u2581\u0648\u0631\u063a\u0645": 4906, "\u2581\u0627\u0644\u0625\u0635\u0644\u0627\u062d": 4907, "second": 4908, "\u2581\u0627\u062e\u062a\u064a\u0627\u0631": 4909, "\u2581300": 4910, "ti": 4911, "\u2581\u063a\u0636\u0648\u0646": 4912, "\u2581\u0623\u0634\u0639\u0631": 4913, "\u2581\u0627\u0646\u062a\u0647\u0627\u0643": 4914, "\u2581organs": 4915, "\u2581Norway": 4916, "\u2581learned": 4917, "\u2581\u0627\u0644\u062a\u0628\u0631\u0639\u0627\u062a": 4918, "\u2581\u0644\u0627\u062d\u0642\u0627": 4919, "\u2581\u064a\u0641\u0639\u0644": 4920, "\u2581\u0627\u0644\u062c\u0632\u0631\u064a\u0629": 4921, "\u2581\u0627\u0644\u0627\u0633\u062a\u0641\u0627\u062f\u0629": 4922, "\u2581remaining": 4923, "\u2581(2001)": 4924, "\u2581Mo": 4925, "\u2581press": 4926, "\u2581\u062d\u0635\u0644": 4927, "\u2581\u0627\u0644\u062b\u0644\u0627\u062b\u0629": 4928, "\u2581\u0627\u0644\u0623\u062c\u0646\u0628\u064a": 4929, "\u2581\u064a\u0635\u0628\u062d": 4930, "\u2581industry": 4931, "\u2581\u0627\u0644\u0641\u062a\u064a\u0627\u062a": 4932, "\u2581crucial": 4933, "\u062a\u0639\u0631\u0641": 4934, "\u2581science": 4935, "\u2581\u0627\u0644\u0645\u0639\u062a\u0645\u062f\u0629": 4936, "\u2581Burundi": 4937, "\u2581\u0627\u0644\u062d\u0644": 4938, "\u2581Jesus": 4939, "\u0643\u0627\u0646": 4940, "\u2581\u0648\u0627\u0644\u062f\u0648\u0644": 4941, "\u2581Timor": 4942, "\u2581\u0634\u0643": 4943, "\u2581chance": 4944, "\u2581\u0646\u0641\u0633\u0643": 4945, "\u2581Man": 4946, "\u2581\u0628\u062f\u0627\u064a\u0629": 4947, "han": 4948, "\u2581perspective": 4949, "\u2581\u0623\u0631\u0649": 4950, "\u2581\u0648\u063a\u064a\u0631\u0647": 4951, "\u2581attack": 4952, "\u2581\u0645\u0642\u0627\u0631\u0646\u0629": 4953, "\u2581Ministers": 4954, "\u2581agree": 4955, "\u2581represented": 4956, "\u2581unit": 4957, "\u2581scale": 4958, "\u2581\u0644\u0628\u0646\u0627\u0621": 4959, "\u2581series": 4960, "\u2581\u0634\u0631\u0648\u0637": 4961, "69": 4962, "\u2581Really": 4963, "\u2581\u0633\u0648": 4964, "\u2581\u0645\u0635\u0631": 4965, "\u2581specifically": 4966, "\u2581highest": 4967, "\u2581\u0644\u0644\u0646\u0638\u0631": 4968, "\u0645\u062b\u0644": 4969, "\u2581\u0627\u0644\u0635\u0639\u064a\u062f\u064a\u0646": 4970, "\u2581Staff": 4971, "\u2581earlier": 4972, "\u2581\u062a\u0631\u062a\u064a\u0628\u0627\u062a": 4973, "\u2581\u062f\u0648": 4974, "\u2581\u0644\u0623\u062d\u0643\u0627\u0645": 4975, "\u0639\u062c\u0628": 4976, "\u0641\u064a\u0646": 4977, "\u2581\u0628\u0642\u0631\u0627\u0631": 4978, "\u2581namely": 4979, "\u2581integrity": 4980, "\u2581Colombia": 4981, "\u2581\u0627\u0644\u0641\u0627\u0639\u0644\u0629": 4982, "25": 4983, "\u2581\u062a\u0631\u063a\u0628": 4984, "\u2581listen": 4985, "\u2581news": 4986, "\u2581Humanitarian": 4987, "ec": 4988, "\u2581\u0627\u0644\u0627\u0633\u062a\u0631\u0627\u062a\u064a\u062c\u064a": 4989, "\u2581relative": 4990, "\u2581\u0627\u0644\u0645\u0634\u0627\u0631\u0643\u064a\u0646": 4991, "\u2581\u0627\u0644\u0645\u062e\u062a\u0635\u0629": 4992, "\u2581authorized": 4993, "\u2581\u0627\u0644\u0633\u0627\u0645\u064a": 4994, "\u2581eight": 4995, "\u2581representation": 4996, "\u2581\u0627\u0644\u0645\u0631\u0627\u0642\u0628\u0629": 4997, "\u2581\u0639\u0642\u062f\u062a": 4998, "\u2581\u063a\u0631\u064a\u0628": 4999, "\u2581\u0648\u0627\u0644\u062d\u0631\u064a\u0627\u062a": 5000, "\u2581\u0627\u0644\u0623\u0633\u0645\u0627\u0643": 5001, "\u2581resulted": 5002, "\u0623\u062e\u0630": 5003, "\u2581subsequent": 5004, "int": 5005, "\u2581Trust": 5006, "\u2581\u0627\u0644\u0627\u0633\u062a\u062c\u0627\u0628\u0629": 5007, "\u2581\u0627\u0644\u0623\u062b\u0631": 5008, "\u2581\u0627\u0644\u0623\u062f\u0646\u0649": 5009, "\u2581risks": 5010, "\u2581observers": 5011, "\u2581\u0627\u0644\u0648\u0641\u062f": 5012, "\u2581Dad": 5013, "\u2581\u0627\u0644\u0642\u0627\u062f\u0645\u0629": 5014, "\u2581=": 5015, "\u2581\u0627\u0644\u0645\u0647\u0627\u0645": 5016, "\u2581\u0648\u0623\u0634\u0627\u0631\u062a": 5017, "\u2581\u0627\u0644\u0634\u062e\u0635\u064a\u0629": 5018, "\u2581\u0627\u0644\u0645\u0637\u0627\u0644\u0628\u0627\u062a": 5019, "\u2581recognize": 5020, "\u2581\u0628\u062a\u0639\u0632\u064a\u0632": 5021, "\u2581\u0627\u0644\u062f\u0648\u0631\u0627\u062a": 5022, "\u2581\u0644\u0627\u062a\u0641\u0627\u0642\u064a\u0629": 5023, "\u0627\u0626\u0641": 5024, "000": 5025, "ver": 5026, "\u0627\u0648": 5027, "\u2581Internet": 5028, "\u2581participating": 5029, "\u2581\u0633\u064a\u0631\u0627\u0644\u064a\u0648\u0646": 5030, "der": 5031, "\u2581\u064a\u0633\u062a\u0637\u064a\u0639": 5032, "\u2581\u0627\u0644\u0645\u0646": 5033, "\u0642\u064a": 5034, "\u2581\u0627\u0644\u062a\u0623\u0643\u064a\u062f": 5035, "\u2581Asian": 5036, "\u2581\u0627\u0644\u0631\u0623\u064a": 5037, "\u2581function": 5038, "\u2581kids": 5039, "\u2581Deputy": 5040, "\u2581\u0628\u0627\u0639\u062a\u0628\u0627\u0631\u0647\u0627": 5041, "\u0631\u0627\u062f": 5042, "\u0643\u062a\u0648\u0631": 5043, "\u0637\u0631": 5044, "\u2581\u0645\u0648\u0638\u0641": 5045, "\u2581\u0645\u0633\u062a\u0642\u0644\u0629": 5046, "212)": 5047, "\u0639\u064a\u062f": 5048, "\u2581\u062a\u062c\u0639\u0644": 5049, "proliferation": 5050, "\u2581eliminate": 5051, "\u2581\u0623\u062c\u0647\u0632\u0629": 5052, "\u2581\u0627\u0644\u062a\u0646\u0648\u0639": 5053, "\u2581\u0647\u064a\u0643\u0644": 5054, "\u2581\u062a\u062e\u0641\u064a\u0636": 5055, "\u2581\u0628\u0639\u062b\u0627\u062a": 5056, "\u2581\u0628\u062f\u0639\u0645": 5057, "\u2581\u0648\u0646\u0638\u0631\u0627": 5058, "\u2581\u0627\u064a\u0636\u0627": 5059, "ninth": 5060, "\u2581competition": 5061, "\u2581\u0627\u0644\u0633\u0648\u0631\u064a\u0629": 5062, "\u2581round": 5063, "\u2581reducing": 5064, "\u2581\u0662\u0660": 5065, "\u0648\u0632": 5066, "\u2581\u0627\u0644\u0639\u0644\u0645": 5067, "\u2581appointed": 5068, "\u2581\u0627\u0644\u062b\u0642\u0627\u0641\u064a\u0629": 5069, "\u2581\u0648\u062a\u0642\u064a\u064a\u0645": 5070, "\u2581\u0627\u0644\u0645\u062f\u0631\u0633\u0629": 5071, "\u2581\u0641\u0645\u0646": 5072, "\u2581\u0623\u0642\u0631\u0628": 5073, "\u063a\u0644\u0642": 5074, "\u2581targets": 5075, "\u2581Status": 5076, "\u2581\u0644\u062f\u064a\u0647\u0645": 5077, "\u2581favour": 5078, "\u2581\u0641\u0631\u0636": 5079, "\u2581\u064a\u0633\u0627\u0639\u062f": 5080, "\u2581Even": 5081, "\u2581component": 5082, "\u2581yes": 5083, "ES": 5084, "\u2581\u0628\u0646\u0627": 5085, "\u2581\u0623\u0645\u064a\u0646": 5086, "\u2581\u062d\u0644\u0642\u0627\u062a": 5087, "\u2581Chamber": 5088, "\u2581\u062f\u0645": 5089, "\u2581Official": 5090, "\u0631\u0627\u0646": 5091, "\u2581\u062a\u0628\u0630\u0644\u0647\u0627": 5092, "\u2581moment": 5093, "\u2581\u0644\u0632\u064a\u0627\u062f\u0629": 5094, "\u2581\u0627\u0644\u0639\u0638\u0645\u0649": 5095, "\u2581gross": 5096, "\u2581ratification": 5097, "\u2581\u062a\u0631\u062f": 5098, "tor": 5099, "\u2581affairs": 5100, "\u2581\u0644\u0644\u0641\u0642\u0631\u0629": 5101, "app": 5102, "ating": 5103, "\u2581\u0627\u0644\u0635\u0641\u062d\u0629": 5104, "\u2581Argentina": 5105, "ors": 5106, "\u2581\u0627\u0644\u0645\u062a\u0631\u062a\u0628\u0629": 5107, "ack": 5108, "\u062f\u0627\u0621": 5109, "\u2581places": 5110, "\u2581\u0627\u0644\u0643\u0628\u064a\u0631\u0629": 5111, "\u062c\u064a\u0646": 5112, "\u2581\u0627\u0644\u0625\u064a\u0631\u0627\u062f\u0627\u062a": 5113, "\u2581centre": 5114, "\u2581\u0627\u0644\u0645\u062a\u0648\u0633\u0637": 5115, "\u2581\u0627\u0644\u0645\u064a\u062b\u0627\u0642": 5116, "\u2581\u0627\u0644\u062a\u0627\u0645": 5117, "\u2581\u062a\u0639\u0646\u064a": 5118, "\u2581guarantee": 5119, "45": 5120, "\u0628\u064a\u0644": 5121, "\u2581\u062a\u0646\u0641\u064a\u0630\u0647\u0627": 5122, "\u2581category": 5123, "\u2581\u062e\u0637\u0648\u0627\u062a": 5124, "\u2581break": 5125, "\u2581tomorrow": 5126, "\u2581\u0639\u0645\u0648\u0645\u0627": 5127, "\u0645\u064a\u0646": 5128, "\u062f\u0641\u0639": 5129, "\u2581secure": 5130, "\u2581\u0634\u0623\u0646\u0647": 5131, "\u0645\u062f": 5132, "\u0644\u0627\u062a": 5133, "\u2581chapter": 5134, "\u2581\u0627\u0644\u0627\u0639\u062a\u0645\u0627\u062f": 5135, "\u2581easy": 5136, "\u25811999,": 5137, "\u2581\u0627\u0644\u062a\u0642\u062f\u064a\u0631": 5138, "\u2581\u062a\u062a\u062d\u062f\u062b": 5139, "ong": 5140, "\u0627\u0631\u062a": 5141, "\u2581\u0648\u064a\u062c\u0631\u064a": 5142, "\u2581\u0627\u0644\u0625\u0644\u0643\u062a\u0631\u0648\u0646\u064a\u0629": 5143, "\u2581deep": 5144, "\u2581Food": 5145, "\u2581\u0644\u0644\u0625": 5146, "\u2581\u0627\u0644\u0645\u062a\u0639\u062f\u062f": 5147, "\u2581\u0627\u0644\u0645\u0648\u062c\u0647\u0629": 5148, "\u0627\u062a\u0647\u0627": 5149, "ley": 5150, "\u2581\u062e\u0627\u0631\u062c\u064a\u0629": 5151, "\u2581\u0627\u0644\u0633\u0627\u062d\u0644\u064a\u0629": 5152, "\u2581Ja": 5153, "\u258169": 5154, "\u2581TO": 5155, "\u25812009\u060c": 5156, "\u2581\u0648\u0627\u0644\u0622\u0646": 5157, "\u2581\u0627\u0644\u0641\u0639\u0627\u0644": 5158, "\u2581insurance": 5159, "\u2581\u0633\u064a\u0627\u0633\u064a\u0629": 5160, "\u2581\u062a\u0639\u062a\u0645\u062f": 5161, "\u2581eyes": 5162, "\u2581Population": 5163, "ff": 5164, "\u2581emphasis": 5165, "\u2581died": 5166, "\u2581\u0625\u0632\u0627\u0644\u0629": 5167, "air": 5168, "\u2581\u0641\u0631\u0642\u0629": 5169, "\u2581\u0648\u0628\u0631\u0627\u0645\u062c": 5170, "\u2581extend": 5171, "\u2581\u0627\u0644\u0622\u0644\u064a\u0629": 5172, "\u2581\u0623\u0634\u0627\u0631": 5173, "19": 5174, "\u2581\u0627\u0631\u062a\u0641\u0627\u0639": 5175, "\u2581\u0627\u0644\u0637\u0631\u0642": 5176, "\u2581\u0627\u0644\u0633\u0648\u0642": 5177, "\u2581mutual": 5178, "\u2581War": 5179, "\u2581\u062a\u0642\u062f\u064a\u0631": 5180, "\u2581\u062a\u062c\u0631\u064a": 5181, "\u2581\u0623\u0633\u0639\u0627\u0631": 5182, "\u2581aware": 5183, "\u2581applications": 5184, "\u2581collective": 5185, "\u2581\u0641\u064a\u0647\u0645": 5186, "\u2581\u0644\u0644\u062f\u0648\u0631\u0629": 5187, "\u2581\u0628\u0639\u062f\u0645": 5188, "/3": 5189, "\u2581\u0645\u0634\u062a\u0631\u0643": 5190, "\u2581approximately": 5191, "eighth": 5192, "\u2581\u0648\u062a\u062d\u0642\u064a\u0642": 5193, "\u2581\u0627\u0644\u062b\u0644\u0627\u062b": 5194, "\u2581Every": 5195, "\u2581\u0641\u0647\u0648": 5196, "\u2581More": 5197, "\u2581waste": 5198, "sc": 5199, "\u2581story": 5200, "\u0633\u062a\u062e\u062f\u0645": 5201, "\u2581Will": 5202, "\u2581Gaza": 5203, "\u2581\u0628\u0627\u0644\u062a\u0642\u0631\u064a\u0631": 5204, "\u2581credit": 5205, ".4/": 5206, "\u2581\u0648\u0636\u0645\u0627\u0646": 5207, "\u2581\u0627\u0644\u0628\u064a\u0648\u0644\u0648\u062c\u064a": 5208, "\u2581\u0627\u0644\u0623\u0644\u0641\u064a\u0629": 5209, "\u2581\u0627\u0644\u0622\u0644\u064a\u0627\u062a": 5210, "\u2581Ukraine": 5211, "\u2581\u062a\u0639\u0627\u0648\u0646": 5212, "\u2581\u0645\u0631\u0627\u0641\u0642": 5213, "\u2581\u0644\u0625\u062c\u0631\u0627\u0621": 5214, "\u2581\u0627\u0644\u0628\u0646\u0643": 5215, "\u2581Decade": 5216, "\u2581fields": 5217, "\u2581\u0644\u0643\u0646\u0647": 5218, "\u2581\u0627\u0645\u0631\u0623\u0629": 5219, "\u2581corruption": 5220, "\u2581\u062a\u0639\u0631\u0628": 5221, "\u2581\u0648\u0642\u0639\u062a": 5222, "\u2581\u0648\u062e\u062f\u0645\u0627\u062a": 5223, "\u2581organizational": 5224, "\u0627\u0626\u0631": 5225, "\u2581worry": 5226, "\u2581\u062a\u0648\u062f": 5227, "\u062e\u0637": 5228, "\u2581\u0627\u0644\u063a\u0627\u0628\u0627\u062a": 5229, "\u2581\u0627\u0644\u0645\u0645\u0627\u0631\u0633\u0629": 5230, "\u2581Listen": 5231, "\u2581expression": 5232, "\u0643\u064a\u0646": 5233, "\u0642\u0644": 5234, "\u2581Another": 5235, "\u2581registration": 5236, "\u2581\u0630\u0627\u062a\u0647\u0627": 5237, "\u2581\u062a\u0647\u062f\u0641": 5238, "\u2581consent": 5239, "\u2581\u0634\u0631\u0637\u0629": 5240, "\u2581published": 5241, "\u2581Introduction": 5242, "\u2581\u0627\u0644\u0646\u0647\u0627\u0626\u064a\u0629": 5243, "\u2581\u0627\u0644\u062c\u0627\u0646\u0628": 5244, "\u2581\u0628\u0644\u062f\u064a": 5245, "\u2581\u0639\u0627\u0644\u0645\u064a\u0629": 5246, "\u2581check": 5247, "\u2581\u0625\u0633": 5248, "\u2581\u0647\u0627\u064a\u062a\u064a": 5249, "ug": 5250, "\u2581\u0627\u0644\u0643\u0628\u064a\u0631": 5251, "\u2581publication": 5252, "75": 5253, "\u2581VI": 5254, "\u2581\u0627\u0644\u0645\u0624\u0633\u0633\u064a\u0629": 5255, "\u2581\u0627\u0644\u0633\u0644\u0648\u0643": 5256, "\u2581\u0628\u0627\u0646": 5257, "\u2581\u062a\u062d\u0628": 5258, "\u2581\u0627\u062a\u062e\u0630\u062a": 5259, "\u2581\u0643\u0648\u062a": 5260, "\u2581\u0648\u0627\u0636\u062d": 5261, "\u2581\u064a\u0639\u0644\u0645": 5262, "\u2581\u0627\u0644\u0646\u0627\u062c\u0645\u0629": 5263, "\u2581works": 5264, "\u0635\u0628": 5265, "\u0627\u0644\u0642\u0631\u0627\u0631": 5266, "\u2581\u0637\u0648\u064a\u0644": 5267, "\u2581\u0627\u0644\u0634\u0628\u0643\u0629": 5268, "\u258172": 5269, "\u2581\u0648\u0633\u0637": 5270, "\u2581\u0639\u0644": 5271, "\u2581\u0648\u0627\u0644\u0625\u062c\u0631\u0627\u0621\u0627\u062a": 5272, "\u2581\u0627\u0644\u0625\u062c\u0631\u0627\u0621": 5273, "\u2581\u0627\u0644\u0643\u0644\u0645\u0629": 5274, "\u2581\u0648\u0627\u0644\u0642\u0627\u0646\u0648\u0646": 5275, "\u2581Questions": 5276, "\u2581\u0627\u0644\u0633\u0644\u0627\u0645\u0629": 5277, "\u2581\u062a\u062e\u0637\u064a\u0637": 5278, "\u2581\u062a\u062f\u062e\u0644": 5279, "\u2581norms": 5280, "\u2581appointment": 5281, "oh": 5282, "\u2581\u0642\u0631\u0631": 5283, "economic": 5284, "\u2581advisory": 5285, "\u2581outcomes": 5286, "\u2581enjoyment": 5287, "\u2581increasingly": 5288, "\u2581Control": 5289, "\u2581\u0623\u0634\u062e\u0627\u0635": 5290, "\u2581\u0627\u0644\u0645\u0633\u0644\u062d": 5291, "\u2581\u0627\u0644\u0623\u0641\u0636\u0644": 5292, "WG": 5293, "\u2581minorities": 5294, "18": 5295, "\u0627\u0626\u064a\u0629": 5296, "\u25814,": 5297, "\u2581\u0627\u0644\u0634\u0643\u0648\u0649": 5298, "\u064a\u0631\u0629": 5299, "\u2581\u0634\u0645\u0627\u0644": 5300, "\u2581\u0645\u0642\u062a\u0631\u062d\u0627\u062a": 5301, "\u2581\u0631\u0641\u0639": 5302, "\u2581Haiti": 5303, "\u2581\u0627\u0644\u0645\u062f\u0639\u064a": 5304, "\u2581\u0648\u0644\u0646": 5305, "\u062c\u0644\u0633": 5306, "\u2581\u0648\u0631\u0642\u0629": 5307, "\u2581contributed": 5308, "\u2581offence": 5309, "\u2581\u0642\u0644\u0642\u0647\u0627": 5310, "\u2581\u064a\u0648\u0627\u0635\u0644": 5311, "\u2581\u0627\u0644\u0645\u0631\u062a\u0628\u0637\u0629": 5312, "CRP": 5313, "gr": 5314, "\u2581\u0648\u0639": 5315, "\u2581\u0645\u0628\u0627\u062f\u0631\u0627\u062a": 5316, "\u2581\u0644\u0644\u062a\u0648": 5317, "\u2581charge": 5318, "\u2581\u0644\u064a\u0644\u0629": 5319, "\u2581mainly": 5320, "\u2581\u0627\u0644\u0645\u0648\u0627\u0637\u0646\u064a\u0646": 5321, "\u2581\u0645\u062c\u062a\u0645\u0639": 5322, "\u2581exactly": 5323, "com": 5324, "\u2581\u0648\u0633\u0627\u0626\u0637": 5325, "\u2581\u0627\u0644\u0639\u0648\u0627\u0645\u0644": 5326, "\u0627\u0631\u0629": 5327, "\u2581contains": 5328, "\u2581\u0627\u0644\u0645\u062e\u0635\u0635": 5329, "\u2581\u0625\u0633\u062a": 5330, "\u2581convention": 5331, "\u2581\u0627\u0633\u062a\u062c\u0627\u0628\u0629": 5332, "\u2581fall": 5333, "\u2581\u0627\u0644\u0627\u0633\u062a\u0634\u0627\u0631\u064a": 5334, "seventh": 5335, "\u2581choice": 5336, "mer": 5337, "\u2581Chairperson": 5338, "\u25815-": 5339, "\u0627\u0626\u0647\u0627": 5340, "\u2581emerging": 5341, "\u2581\u0627\u0644\u062a\u0627\u0631\u064a\u062e": 5342, "\u2581consumption": 5343, "\u2581\u0627\u0644\u0645\u0646\u0638\u0648\u0631": 5344, "\u2581OHCHR": 5345, "\u2581territorial": 5346, "\u2581\u062a\u062e\u0628\u0631": 5347, "\u0627\u0626\u0647": 5348, "\u064a\u0627\u0646": 5349, "\u2581\u0627\u0644\u0625\u0642\u0644\u064a\u0645": 5350, "\u2581\u0648\u0627\u0644\u0625\u062f\u0627\u0631\u0629": 5351, "\u2581\u0627\u0644\u0632\u064a\u0627\u062f\u0629": 5352, "\u2581r": 5353, "\u2581speaking": 5354, "\u0623\u0643\u0648\u0646": 5355, "\u0632\u0627\u0644": 5356, "\u2581murder": 5357, "old": 5358, "\u2581draw": 5359, "\u2581Internal": 5360, "\u2581failure": 5361, "lic": 5362, "\u2581fulfil": 5363, "\u2581\u0627\u0644\u0625\u0633\u0631\u0627\u0626\u064a\u0644\u064a": 5364, "\u0628\u0642\u064a": 5365, "37": 5366, "\u2581Parliament": 5367, "\u2581migrants": 5368, "\u2581\u0648\u0645\u0643\u062a\u0628": 5369, "\u2581\u0635\u0639\u064a\u062f": 5370, "\u2581Sweden": 5371, "\u2581Indigenous": 5372, "\u2581\u0627\u0644\u062a\u062d\u0642\u0642": 5373, "\u2581findings": 5374, "\u2581\u062c\u0647\u0629": 5375, "\u2581book": 5376, "ative": 5377, "\u0643\u0627": 5378, "\u2581\u0661\u0666": 5379, "South": 5380, "\u2581\u0627\u0644\u0645\u0639\u0642\u0648\u062f": 5381, "io": 5382, "\u2581elimination": 5383, "\u2581\u0645\u0647\u0645\u0627": 5384, "\u2581\u0644\u0627\u0628\u062f": 5385, "\u2581engage": 5386, "\u2581\u0625\u0646\u0647\u0645": 5387, "\u2581\u0644\u0644\u0628\u0639\u062b\u0629": 5388, "\u2581\u0648\u062a\u062d\u062f\u064a\u062f": 5389, "Signed": 5390, "\u2581whatever": 5391, "\u2581Their": 5392, "\u2581Prosecutor": 5393, "\u2581\u0627\u062e": 5394, "\u2581felt": 5395, "Ivoire": 5396, "WP": 5397, "\u2581competent": 5398, "\u2581investigations": 5399, "\u2581\u0627\u0645": 5400, "\u2581Adoption": 5401, "27": 5402, "\u2581\u0627\u0644\u0628\u0631\u0627\u0632\u064a\u0644": 5403, "ex": 5404, "\u2581\u0627\u0644\u0637\u0627\u0628\u0639": 5405, "\u2581reforms": 5406, "\u2581ju": 5407, "om": 5408, "\u2581contracts": 5409, "\u2581rise": 5410, "\u2581Ch": 5411, "\u0631\u0648\u0628": 5412, "\u2581\u0627\u0644\u0623\u062d\u064a\u0627\u0646": 5413, "\u2581ahead": 5414, "\u2581reintegration": 5415, "\u2581expenditures": 5416, "\u2581\u0648\u0630\u0643\u0631": 5417, "\u2581recorded": 5418, "ized": 5419, "\u2581sc": 5420, "ki": 5421, "\u2581\u0648\u0631\u0627\u0621": 5422, "\u062a\u0627\u062d": 5423, "\u2581Nothing": 5424, "\u2581\u062a\u062d\u062f\u062f": 5425, "\u2581goes": 5426, "\u2581\u0627\u0644\u0628\u0631": 5427, "\u2581\u062f\u064a\u0633\u0645\u0628\u0631": 5428, "\u2581\u0648\u0623\u062e\u064a\u0631\u0627": 5429, "\u2581\u0648\u062a\u0644\u0627\u062d\u0638": 5430, "\u2581\u0628\u0645\u0642\u062a\u0636\u0649": 5431, "\u2581\u0663\u0661": 5432, "\u2581sign": 5433, "\u0648\u062c": 5434, "\u064a\u0632": 5435, "\u2581\u0627\u0644\u0645\u0646\u0627\u0641\u0633\u0629": 5436, "\u2581\u0663\u0660": 5437, "\u2581minute": 5438, "\u2581answer": 5439, "\u2581\u0627\u0644\u0628\u062d\u0648\u062b": 5440, "\u2581Darfur": 5441, "\u2581\u0625\u0646\u0647\u0627\u0621": 5442, "si": 5443, "\u2581\u0627\u0644\u0630\u0631\u064a\u0629": 5444, "\u2581\u0627\u0644\u0645\u0624\u0633\u0633\u0629": 5445, "\u2581\u0628\u0634\u0623\u0646\u0647\u0627": 5446, "\u2581sovereignty": 5447, "res": 5448, "\u2581\u0648\u0641\u062f\u0647": 5449, "\u2581sentence": 5450, "\u2581\u0648\u0627\u0644\u062c\u0631\u064a\u0645\u0629": 5451, "\u2581Nigeria": 5452, "quite": 5453, "\u2581defence": 5454, "\u2581test": 5455, "\u2581affect": 5456, "\u2581\u0627\u0644\u0639\u0642\u0648\u0628\u0629": 5457, "\u2581\u0627\u0644\u0647\u0627\u062a\u0641": 5458, "\u2581\u0627\u0644\u0639\u0642\u0627\u0628": 5459, "\u2581\u0627\u0644\u0637\u0631\u0641\u064a\u0646": 5460, "\u2581reservations": 5461, "\u2581Most": 5462, "\u2581candidates": 5463, "/49/": 5464, "\u062c\u064a": 5465, "\u2581Principles": 5466, "fourth": 5467, "\u2581\u0648\u0635\u0648\u0644": 5468, "\u2581\u0627\u0644\u062a\u0645\u062a\u0639": 5469, "\u2581\u0643\u0627\u0645\u0644\u0627": 5470, "\u0627\u0644\u0641\u0642\u0631\u0629": 5471, "\u0628\u0648\u0644": 5472, "\u2581scar": 5473, "\u2581\u0623\u0647\u0645": 5474, "\u2581\u0633\u0644\u0637\u0627\u062a": 5475, "\u2581front": 5476, "\u2581\u0635\u0648\u0631\u0629": 5477, "\u2581Mar": 5478, "\u2581\u0627\u0644\u0623\u0631\u062c\u0646\u062a\u064a\u0646": 5479, "\u2581\u062a\u0634\u0643\u064a\u0644": 5480, "\u2581\u0634\u0631\u0637": 5481, "\u2581\u0627\u0644\u0645\u0637\u0644\u0648\u0628": 5482, "\u2581Noting": 5483, "\u2581respectively": 5484, "\u2581\u062a\u062a\u0633\u0645": 5485, "\u2581married": 5486, "\u2581observed": 5487, "\u0640\u0640\u0640\u0640\u0640": 5488, "\u2581send": 5489, "\u2581functioning": 5490, "\u0636\u0645": 5491, "\u2581existence": 5492, "\u258171": 5493, "\u2581constitutional": 5494, "\u2581reconciliation": 5495, "\u2581\u0630": 5496, "\u2581(2004)": 5497, "\u2581\u0627\u0644\u0623\u0633\u0628\u0627\u0628": 5498, "\u2581granted": 5499, "\u2581decide": 5500, "\u2581Jehovah": 5501, "\u25812010,": 5502, "\u2581\u0627\u0644\u0639\u0633\u0643\u0631\u064a": 5503, "2-": 5504, "\u2581Rule": 5505, "\u2581\u0627\u0644\u0625\u0646\u062a\u0627\u062c": 5506, "oc": 5507, "\u2581zone": 5508, "\u2581\u0628\u0627\u0644\u0623\u0634\u062e\u0627\u0635": 5509, "\u2581\u0634\u064a": 5510, "ya": 5511, "\u2581leaving": 5512, "\u2581Z": 5513, "\u2581\u0644\u062a\u0648\u0641\u064a\u0631": 5514, "\u2581direction": 5515, "\u2581\u062a\u0633\u0645\u062d": 5516, "\u2581clean": 5517, "\u2581\u0633\u062c\u0644": 5518, "\u2581\u0628\u0648\u0636\u0648\u062d": 5519, "\u2581seems": 5520, "\u2581categories": 5521, "\u2581\u0644\u0645\u0643\u062a\u0628": 5522, "\u0639\u0627": 5523, "\u2581endorsed": 5524, "\u2581\u0647\u0646\u0627\u0644\u0643": 5525, "con": 5526, "\u2581highlighted": 5527, "\u2581\u0648\u0627\u0644\u0645\u0648\u0627\u0631\u062f": 5528, "\u062f\u0649": 5529, "\u2581\u0645\u0647\u0645": 5530, "\u2581allegations": 5531, "\u2581structures": 5532, "\u25811373": 5533, "\u2581\u0648\u0644\u062c\u0646\u0629": 5534, "\u2581indicate": 5535, "\u2581\u0633\u064a\u0631": 5536, "\u2581Day": 5537, "/52/": 5538, "\u2581eat": 5539, "\u2581\u0627\u0644\u0643\u0631\u0628\u0648\u0646": 5540, "\u2581\u0645\u0648\u0627\u062c\u0647\u0629": 5541, "\u2581substantial": 5542, "\u2581\u0623\u0645\u0631\u0627": 5543, "\u2581responses": 5544, "\u2581listed": 5545, "\u2581\u0648\u0627\u0644\u0625": 5546, "\u2581\u0627\u0644\u062d\u0645": 5547, "\u2581wishes": 5548, "\u2581except": 5549, "\u2581values": 5550, "\u2581\u0627\u0644\u062f\u0639\u0648\u0629": 5551, "\u2581\u0644\u0625\u0639\u0627\u062f\u0629": 5552, "\u2581Prime": 5553, "ek": 5554, "\u062a\u0635\u0644": 5555, "\u2581\u062f\u0639\u0645\u0627": 5556, "\u2581\u064a\u0636\u0637\u0644\u0639": 5557, "tro": 5558, "\u2581tasks": 5559, "\u2581\u0642\u0644\u0642": 5560, "\u2581\u0627\u0644\u0623\u062f\u0644\u0629": 5561, "\u2581n": 5562, "\u2581hate": 5563, "\u0648\u064a\u0644": 5564, "\u2581Total": 5565, "\u2581\u0647\u0627\u0645": 5566, "\u0648\u0631\u064a": 5567, "\u0628\u0648\u0646": 5568, "au": 5569, "\u2581\u0628\u0627\u0643\u0633\u062a\u0627\u0646": 5570, "\u2581\u0631\u062c\u0627\u0621": 5571, "\u2581\u0628\u062a\u0642\u0631\u064a\u0631": 5572, "\u2581calling": 5573, "\u2581requirement": 5574, "\u2581sought": 5575, "ical": 5576, "\u2581\u0625\u0642\u0644\u064a\u0645": 5577, "\u2581\u0648\u0623\u0648\u062f": 5578, "\u2581\u0627\u0644\u062f\u062e\u0648\u0644": 5579, "\u2581\u0627\u0644\u0623\u0633\u0628\u0648\u0639": 5580, "\u2581\u0631\u0648": 5581, "\u2581\u0627\u0644\u0625\u0646": 5582, "\u2581ones": 5583, "\u2581Croatia": 5584, "\u2581\u062a\u0635\u0645\u064a\u0645": 5585, "\u2581\u0627\u0644\u0645\u0647\u0645\u0629": 5586, "\u2581marine": 5587, "\u0643\u0631\u0627": 5588, "sixth": 5589, "\u2581\u064a\u0639\u064a\u0634\u0648\u0646": 5590, "\u2581\u0635\u062d\u0629": 5591, "\u2581release": 5592, "\u2581\u0642\u0628\u0631\u0635": 5593, "\u2581Morocco": 5594, "\u2581subsidiary": 5595, "\u2581\u0627\u0644\u0643\u062a\u0627\u0628": 5596, "OR": 5597, "\u2581daughter": 5598, "\u2581\u0648\u0644\u0643\u0646\u0647\u0627": 5599, "\u2581campaign": 5600, "\u0633\u0648\u0621": 5601, "\u2581\u0647\u0627\u0621": 5602, "\u2581\u0627\u0644\u0648\u062d\u064a\u062f\u0629": 5603, "\u2581Jerusalem": 5604, "35": 5605, "\u2581drink": 5606, "\u2581\u0627\u0644\u0633\u0627\u062f\u0633": 5607, "\u2581\u0648\u0627\u0644\u0645\u0627\u0644\u064a\u0629": 5608, "\u2581vital": 5609, "\u258176": 5610, "\u2581\u0648\u0647\u0645": 5611, "\u2581forum": 5612, "\u2581\u0628\u0648\u0631\u0648\u0646\u062f\u064a": 5613, "\u2581Fifty": 5614, "\u2581sharing": 5615, "\u2581\u0645\u062a\u0648\u0633\u0637": 5616, "\u2581Refugees": 5617, "\u2581\u0627\u0644\u0642\u064a\u0645\u0629": 5618, "\u2581\u0648\u0627\u0644\u0632\u0631\u0627\u0639\u0629": 5619, "\u2581\u0627\u0644\u062c\u0648\u064a": 5620, "pa": 5621, "\u2581exist": 5622, "\u2581vol": 5623, "\u2581played": 5624, "41": 5625, "\u2581\u0631\u0648\u0627\u0646\u062f\u0627": 5626, "\u2581executive": 5627, "\u2581creating": 5628, "\u2581\u0635\u0648\u062a": 5629, "\u2581trends": 5630, "\u064a\u0643\u064a": 5631, "\u0631\u062a\u0628\u0629": 5632, "\u2581\u0627\u0644\u062a\u0641\u0627\u0648\u0636": 5633, "\u2581\u0633\u0648\u0621": 5634, "\u2581\u0628\u0641\u064a\u0631\u0648\u0633": 5635, "\u2581\u062a\u0635\u0644": 5636, "\u2581\u062c\u0647\u0627\u0632": 5637, "\u2581considering": 5638, "\u2581realization": 5639, "fifth": 5640, "\u2581\u0627\u0644\u0628\u0631\u0644\u0645\u0627\u0646": 5641, "21": 5642, "\u2581racism": 5643, "\u2581C\u00f4te": 5644, "\u2581\u0628\u0644\u063a\u062a": 5645, "\u2581\u062f\u0627\u0631\u0641\u0648\u0631": 5646, "\u062e\u064a": 5647, "\u0637\u0644\u0628": 5648, "\u2581\u0644\u0639\u0645\u0644\u064a\u0629": 5649, "\u2581delay": 5650, "\u2581\u062a\u0631\u0645\u064a": 5651, "\u2581\u0639\u0627\u0645\u0644": 5652, "\u2581outstanding": 5653, "IS": 5654, "\u2581\u0627\u0644\u0627\u0633\u062a\u062e\u062f\u0627\u0645": 5655, "\u2581Part": 5656, "\u2581price": 5657, "\u2581\u0628\u062d\u0645\u0627\u064a\u0629": 5658, "\u2581\u0627\u0644\u0642\u0636\u0627\u0629": 5659, "\u2581Spanish": 5660, "\u2581\u062a\u0628\u064a\u0646": 5661, "\u2581internally": 5662, "\u2581preventing": 5663, "\u2581\u0627\u0644\u0625\u0631\u0647\u0627\u0628\u064a\u0629": 5664, "continued": 5665, "\u2581luck": 5666, "\u2581\u063a\u0632\u0629": 5667, "\u2581\u0627\u0644\u0634\u0631\u0643\u0629": 5668, "\u2581otherwise": 5669, "\u2581industrial": 5670, "\u0628\u062d\u062b": 5671, "\u2581populations": 5672, "\u2581X": 5673, "\u2581considers": 5674, "\u2581networks": 5675, "\u2581\u062a\u062a\u0646\u0627\u0648\u0644": 5676, "\u2581\u0644\u062a\u0645\u0648\u064a\u0644": 5677, "\u2581\u0623\u0647\u0644": 5678, "\u2581\u0644\u0642\u0627\u0646\u0648\u0646": 5679, "\u2581\u0623\u0641": 5680, "\u062c\u0627\u0631": 5681, "\u2581nationality": 5682, "\u2581\u0633\u0631\u064a": 5683, "lan": 5684, "\u2581save": 5685, "\u2581Open": 5686, "\u2581institution": 5687, "\u2581forth": 5688, "\u2581San": 5689, "\u2581\u0628\u063a\u0631\u0636": 5690, "\u2581Work": 5691, "22": 5692, "\u2581\u062a\u062a\u0637\u0644\u0628": 5693, "\u2581\u0645\u0647\u0627\u0645": 5694, "\u2581\u0627\u0644\u062a\u0643\u0644\u0641\u0629": 5695, "\u2581\u0648\u0642\u0648\u0639": 5696, "\u2581\u062a\u0623\u062a\u064a": 5697, "\u2581begin": 5698, "\u2581\u0623\u0642\u0635\u0649": 5699, "\u2581\u062a\u0645\u0643\u064a\u0646": 5700, "IG": 5701, "\u2581\u062f\u062e\u0648\u0644": 5702, "\u062f\u0648": 5703, "\u2581\u0625\u0646\u062c\u0627\u0632": 5704, "\u2581\u0648\u0627\u0644\u0646\u0633\u0627\u0621": 5705, "\u2581amended": 5706, "\u062a\u0648\u0646": 5707, "\u0642\u0635": 5708, "\u2581\u0648\u0633": 5709, "\u2581Chile": 5710, "\u2581\u0646\u0642\u0637\u0629": 5711, "\u2581Thus": 5712, "\u2581\u062a\u0635\u0648\u064a\u062a": 5713, "\u2581\u0627\u0644\u062d\u0627\u062f\u064a": 5714, "\u2581\u0646\u0633": 5715, "\u2581\u0627\u0644\u0642\u0628\u0636": 5716, "\u2581\u062a\u062c\u062f": 5717, "ten": 5718, "\u2581visits": 5719, "\u2581\u062a\u0628\u062f\u0623": 5720, "\u2581\u0641\u062a\u0627\u0629": 5721, "\u2581\u064a\u0643\u0641\u0644": 5722, "\u2581\u0627\u0644\u0639\u0644\u0627\u0642\u0629": 5723, "ons": 5724, "\u2581entered": 5725, "\u2581supplies": 5726, "line": 5727, "\u2581\u0648\u0642\u0627\u0646\u0648\u0646": 5728, "\u2581\u0644\u0644\u062d\u062f": 5729, "\u2581\u0623\u062f\u0646\u0649": 5730, "\u2581\u0627\u0644\u0642\u064a\u0648\u062f": 5731, "\u2581\u062c\u0644\u0633\u0627\u062a": 5732, "\u2581complaints": 5733, "\u25811999.": 5734, "\u2581\u0627\u0644\u0648\u0632\u0627\u0631\u064a": 5735, "\u2581thanks": 5736, "\u2581Forms": 5737, "\u2581bank": 5738, "\u2581himself": 5739, "\u2581\u0627\u0644\u0636\u0631\u0648\u0631\u064a\u0629": 5740, "\u2581Ethiopia": 5741, "\u2581\u0648\u0645\u0646\u0630": 5742, "\u0631\u064a\u0633": 5743, "\u2581completion": 5744, "mail": 5745, "\u2581\u0645\u0646\u062a\u0635\u0641": 5746, "\u0645\u0648": 5747, "\u2581\u0627\u0644\u062c\u064a\u0634": 5748, "\u2581\u0633\u0646\u0648\u064a\u0627": 5749, "\u2581\u0645\u0635\u062f\u0631": 5750, "\u2581produced": 5751, "\u0642\u0637\u0639": 5752, "\u2581Following": 5753, "ED": 5754, "\u2581added": 5755, "\u2581\u0646\u0641\u0639\u0644": 5756, "\u0641\u0648": 5757, "\u2581\u0644\u0644\u0627\u062a\u062d\u0627\u062f": 5758, "\u2581\u062c\u0631": 5759, "\u2581\u0628\u0634\u062f\u0629": 5760, "\u0648\u0644\u064a": 5761, "\u2581delivered": 5762, "36": 5763, "\u2581\u0648\u062c\u062f": 5764, "\u2581watch": 5765, "26": 5766, "\u2581dissemination": 5767, "\u2581\u0627\u0644\u063a\u0630\u0627\u0621": 5768, "\u2581\u064a\u0631\u0649": 5769, "\u2581lose": 5770, "\u2581\u0631\u0641\u0636": 5771, "\u0631\u0634": 5772, "\u2581(20": 5773, "\u2581highly": 5774, "\u2581\u0628\u0639\u064a\u062f\u0627": 5775, "\u258174": 5776, "\u2581\u0661\u0668": 5777, "\u2581\u0623\u0648\u0644\u0648\u064a\u0629": 5778, "\u2581equitable": 5779, "\u2581\u0641\u0639\u0644\u0647": 5780, "\u2581\u0644\u0644\u0646\u0633\u0627\u0621": 5781, "\u2581\u0627\u0644\u0642\u0636\u0627\u0626\u064a": 5782, "\u2581lessons": 5783, "\u2581\u0627\u0644\u0646\u0627\u062a\u062c": 5784, "-19": 5785, "\u2581subprogramme": 5786, "\u2581\u0633\u0644\u0633\u0644\u0629": 5787, "\u2581globalization": 5788, "\u2581accept": 5789, "\u2581changed": 5790, "\u2581\u0648\u062d": 5791, "\u2581\u0648\u062a\u0631\u062f": 5792, "\u0642\u0633\u0645": 5793, "\u2581\u0627\u0644\u0632\u0631\u0627\u0639\u0629": 5794, "\u2581\u0631\u0624\u064a\u0629": 5795, "\u2581offered": 5796, "\u2581\u0634\u0639\u0628": 5797, "29": 5798, "\u2581\u0627\u0644\u0623\u0648\u0644\u0648\u064a\u0627\u062a": 5799, "\u2581\u0627\u0644\u0631\u0627\u0647\u0646\u0629": 5800, "\u2581\u062a\u062d\u0635\u0644": 5801, "\u2581Field": 5802, "\u2581\u0644\u064a\u0628\u0631\u064a\u0627": 5803, "\u2581(1999)": 5804, "\u2581\u0623\u0639": 5805, "\u2581thirty": 5806, "\u2581Project": 5807, "\u2581Bo": 5808, "\u0635\u0627\u0628": 5809, "\u2581\u0661\u0667": 5810, "ended": 5811, "\u2581\u0627\u0644\u0627\u0645\u0631": 5812, "\u062a\u0634": 5813, "\u2581\u0627\u0644\u0645\u062a\u0643\u0627\u0645\u0644\u0629": 5814, "48": 5815, "\u2581identification": 5816, "\u2581\u062e\u0637\u0623": 5817, "\u2581\u0627\u0639\u0631\u0641": 5818, "\u2581\u0648\u062d\u062f\u0627\u062a": 5819, "\u0631\u0647": 5820, "\u2581statistical": 5821, "\u2581\u0627\u0644\u062f\u0631\u0627\u0633\u0627\u062a": 5822, "\u2581Britain": 5823, "\u2581\u0627\u0644\u062c\u0632\u0627\u0621\u0627\u062a": 5824, "\u2581faced": 5825, "\u2581\u0628\u064a\u062a": 5826, "\u2581arising": 5827, "\u2581\u0641\u0643\u0631": 5828, "\u2581enjoy": 5829, "\u2581\u0625\u062f\u062e\u0627\u0644": 5830, "\u2581\u0627\u0644\u0645\u0637\u0627\u0644\u0628\u0629": 5831, "\u2581\u0627\u0644\u0628\u0634\u0631": 5832, "95": 5833, "\u062c\u0631\u064a": 5834, "\u2581\u0623\u0633\u0627\u0633\u064a": 5835, "\u2581setting": 5836, "\u2581\u0627\u0644\u064a\u0648\u0646\u064a\u062f\u0648": 5837, "gen": 5838, "che": 5839, "\u2581\u0644\u0644\u0627\u062a\u0641\u0627\u0642\u064a\u0629": 5840, "\u2581Developing": 5841, "ON": 5842, "\u2581amendments": 5843, "\u2581\u0627\u0644\u0637\u0644\u0628\u0627\u062a": 5844, "ep": 5845, "\u2581\u0627\u0644\u0627\u0646\u0636\u0645\u0627\u0645": 5846, "\u2581Drugs": 5847, "ron": 5848, "\u2581Does": 5849, "\u0627\u062f\u0629": 5850, "\u064a\u0648": 5851, "\u2581Monitoring": 5852, "\u2581\u0628\u0627\u0644\u0642\u0631\u0627\u0631": 5853, "\u2581Supreme": 5854, "\u2581\u0627\u0644\u0628\u0646\u0648\u062f": 5855, "\u2581Finland": 5856, "\u2581\u0627\u0646\u062a\u062e\u0627\u0628": 5857, "\u2581\u0627\u062a\u062e\u0630\u062a\u0647\u0627": 5858, "ally": 5859, "\u2581\u0627\u0644\u0645\u0642\u0628\u0644": 5860, "\u2581\u0648\u0627\u0644\u0635\u064a\u0646": 5861, "\u2581survey": 5862, "\u2581interpretation": 5863, "\u2581\u0627\u0644\u062d\u0638\u0631": 5864, "\u2581\u062e\u0644\u0641": 5865, "\u2581\u0627\u0644\u0642\u0631": 5866, "\u2581\u062a\u0636\u0645\u0646": 5867, "\u2581sometimes": 5868, "\u2581\u0642\u0627\u0628\u0644": 5869, "\u2581\u062a\u0631\u0643\u0632": 5870, "\u2581\u0627\u0644\u0645\u0635\u062f\u0631": 5871, "\u2581accused": 5872, "\u2581\u0627\u0644\u0633\u064a\u0627\u0631\u0629": 5873, "\u2581\u0648\u0644\u0647\u0630\u0627": 5874, ".1,": 5875, "\u2581\u0648\u0633\u064a\u0644\u0629": 5876, "/5": 5877, "\u2581carrying": 5878, "mit": 5879, "\u2581Out": 5880, "\u2581pick": 5881, "ight": 5882, "\u2581\u0623\u0631\u0636": 5883, "\u2581\u0648\u0623\u0639\u0631\u0628\u062a": 5884, "ee": 5885, "\u25812010\u060c": 5886, "\u2581\u062a\u062a\u064a\u062d": 5887, "\u2581\u062f\u0631\u0627\u0633\u064a\u0629": 5888, "\u2581\u0644\u0639\u0645\u0644\u064a\u0627\u062a": 5889, "\u2581\u062a\u0648\u0642\u064a\u0639": 5890, "\u062f\u062e\u0644": 5891, "05": 5892, "\u25811998,": 5893, "\u25815,": 5894, "\u0648\u0627\u0644": 5895, "\u2581numbers": 5896, "\u2581\u0627\u0644\u0639\u0645\u0627\u0644\u0629": 5897, "\u2581\u0648\u0627\u0644\u062b\u0644\u0627\u062b\u064a\u0646": 5898, "EC": 5899, "\u2581content": 5900, "\u2581ratified": 5901, "\u2581\u0627\u0644\u062a\u062d\u0642\u064a\u0642\u0627\u062a": 5902, "\u2581diplomatic": 5903, "\u2581\u062a\u062d\u0648\u064a\u0644": 5904, "\u2581join": 5905, "\u2581Calls": 5906, "\u2581Um": 5907, "\u2581top": 5908, "determination": 5909, "\u2581\u0648\u0642\u062f\u0645\u062a": 5910, "\u2581su": 5911, "\u064a\u062a\u0634": 5912, "\u2581lie": 5913, "55": 5914, "\u2581\u0627\u0644\u0639\u0648\u0644\u0645\u0629": 5915, "\u2581\u0627\u0644\u0645\u0646\u0627\u0632\u0639\u0627\u062a": 5916, "\u2581\u0646\u0645\u0648": 5917, "\u2581\u0628\u0634": 5918, "\u0626\u062a": 5919, "\u2581failed": 5920, "\u2581emissions": 5921, "\u062c\u0646": 5922, "\u2581\u062a\u0641\u0647\u0645": 5923, "CO": 5924, "\u2581\u0623\u0644\u0645": 5925, "\u2581\u0627\u0644\u0634\u0643\u0644": 5926, "\u0633\u0627\u0639\u062f": 5927, "\u2581\u0645\u062d\u0627\u0648\u0644\u0629": 5928, "\u2581thematic": 5929, "\u2581\u062c\u0631\u062a": 5930, "\u2581\u0627\u0646\u0639\u0642\u0627\u062f": 5931, "\u2581\u0628\u0623\u0647\u0645\u064a\u0629": 5932, "\u2581\u062f\u0639\u0648\u0629": 5933, "\u2581\u062f\u0648\u0631\u0627": 5934, "\u2581availability": 5935, "\u2581\u0645\u062c\u0645\u0648\u0639\u0627\u062a": 5936, "\u2581Finally": 5937, "01": 5938, "\u2581nations": 5939, "\u2581became": 5940, "\u2581\u0645\u0639\u0627\u0645\u0644\u0629": 5941, "\u2581strongly": 5942, "\u0648\u0644\u0627": 5943, "\u2581ENGLISH": 5944, "\u2581eradication": 5945, "\u2581\u0628\u0627\u062a\u062e\u0627\u0630": 5946, "\u2581IN": 5947, "\u2581\u0644\u062c\u0645\u0647\u0648\u0631\u064a\u0629": 5948, "\u2581comply": 5949, "\u0634\u0627\u0647\u062f": 5950, "\u2581\u0623\u0633\u0627\u0644\u064a\u0628": 5951, "\u2581\u062a\u062e\u0635\u064a\u0635": 5952, "\u0645\u0643": 5953, "\u2581\u062d\u0642\u064a\u0642\u0629": 5954, "\u2581\u0627\u0644\u0631\u062f": 5955, "\u2581\u062d\u0633\u0627\u0628\u0627\u062a": 5956, "53": 5957, "\u2581condition": 5958, "\u2581Kenya": 5959, "II": 5960, "\u2581\u0627\u0644\u0645\u062d\u062f\u062f": 5961, "\u2581\u0627\u0644\u0645\u0639": 5962, "\u2581message": 5963, "\u2581heads": 5964, "\u2581concluding": 5965, "\u2581\u0623\u0639\u0631\u0628\u062a": 5966, "\u2581\u0645\u0624\u0634\u0631\u0627\u062a": 5967, "\u0633\u0623\u0644": 5968, "\u2581\u0648\u0627\u0644\u0635\u062d\u0629": 5969, "\u2581commissions": 5970, "RA": 5971, "\u2581\u0627\u0644\u0646\u0641\u0627\u064a\u0627\u062a": 5972, "ap": 5973, "\u2581\u0648\u062b\u0645\u0629": 5974, "\u2581\u0627\u0644\u0636\u0648\u0621": 5975, "\u2581\u0648\u0627\u0644\u062a\u0648\u0635\u064a\u0627\u062a": 5976, "\u2581pointed": 5977, "\u2581accounting": 5978, "\u2581sleep": 5979, "hit": 5980, "\u2581\u062a\u0645\u062a": 5981, "49": 5982, "\u2581Over": 5983, "\u2581\u0662\u0662": 5984, "\u2581Scientific": 5985, "\u2581\u0625\u0646\u0646\u0627": 5986, "/50/": 5987, "\u2581\u0644\u0644\u0625\u062f\u0627\u0631\u0629": 5988, "\u2581\u062d\u0648\u0627\u0631": 5989, "\u2581\u0628\u0623\u0646\u0634\u0637\u0629": 5990, "\u2581\u062a\u062d\u0648\u0644": 5991, "\u2581\u0646\u0641\u0633\u064a": 5992, "\u2581Resources": 5993, "\u2581judge": 5994, "\u2581\u064a\u0631\u062f": 5995, "\u2581\u0627\u0644\u0627\u0633\u062a": 5996, "\u2581\u0627\u0639\u062a\u0628\u0627\u0631\u0647\u0627": 5997, "\u2581\u0627\u0644\u062d\u0636\u0631\u064a\u0629": 5998, "\u2581\u0648\u0644\u0643\u0646\u0647": 5999, "57": 6000, "\u2581formulation": 6001, "\u2581\u0627\u0644\u0645\u062d\u0627\u0643\u0645\u0629": 6002, "ren": 6003, "ite": 6004, "\u2581\u0644\u0627\u0633\u062a\u0639\u0631\u0627\u0636": 6005, "\u2581experiences": 6006, "\u2581asylum": 6007, "\u2581\u0636\u0631\u0628": 6008, "\u2581\u0646\u0648\u0639\u064a\u0629": 6009, "\u2581\u0627\u0644\u0639\u0645\u0631": 6010, "\u2581Uganda": 6011, "\u2581\u0633\u0648\u0642": 6012, "\u25816-": 6013, "\u2581beautiful": 6014, "\u2581\u0627\u0644\u0646\u0632\u0627\u0639\u0627\u062a": 6015, "wide": 6016, "\u2581Iraqi": 6017, "\u2581Original": 6018, "\u2581\u0643\u0628\u0627\u0631": 6019, "\u2581proper": 6020, "\u2581\u0631\u0627\u0628\u0639\u0627": 6021, "\u2581ill": 6022, "\u2581original": 6023, "\u2581\u062d\u064a\u0627\u062a\u064a": 6024, "\u2581\u0627\u0644\u0633\u0641\u064a\u0631": 6025, "\u2581partner": 6026, "\u2581identity": 6027, "\u2581\u0645\u0648\u0627\u0642\u0639": 6028, "\u2581\u0627\u0644\u0644\u0630\u064a\u0646": 6029, "\u2581\u0623\u0645\u0644": 6030, "\u2581\u0625\u0644\u063a\u0627\u0621": 6031, "\u258110-": 6032, "\u2581game": 6033, "\u2581\u062d\u0635\u0648\u0644": 6034, "\u2581\u0627\u0644\u0645\u0644\u0627\u062d\u0638\u0627\u062a": 6035, "\u2581restrictions": 6036, "\u2581components": 6037, "\u2581Summary": 6038, "\u2581Paris": 6039, "\u2581\u062e\u0637\u064a\u0631\u0629": 6040, "\u2581\u0627\u0644\u0623\u062d\u0645\u0631": 6041, "\u2581\u0648\u062a\u0648\u0635\u064a": 6042, "/51/": 6043, "\u2581agriculture": 6044, "\u2581supports": 6045, "\u2581IAEA": 6046, "\u25812015": 6047, "\u2581\u0648\u0637\u0644\u0628\u062a": 6048, "\u2581\u0627\u0644\u063a\u0630\u0627\u0626\u064a": 6049, "\u2581tool": 6050, "\u064a\u0641\u0629": 6051, "\u2581\u0627\u0644\u0625\u062f\u0645\u0627\u062c": 6052, "\u2581\u0634\u062a\u0649": 6053, "\u2581\u0627\u0644\u0627\u0633\u062a\u0639\u0645\u0627\u0631": 6054, "\u2581considerable": 6055, "\u2581\u0645\u0645\u062b\u0644\u0648": 6056, "\u2581\u0648\u0627\u0644\u0648\u0644\u0627\u064a\u0627\u062a": 6057, "\u2581seem": 6058, "\u2581Its": 6059, "lu": 6060, "\u2581\u0627\u0644\u0645\u0631\u0627\u0641\u0642": 6061, "\u2581Fourth": 6062, "\u2581presentation": 6063, "\u2581\u0627\u0644\u0641\u0639\u0644\u064a": 6064, "78": 6065, "\u2581\u0627\u0644\u0628\u062f\u0627\u064a\u0629": 6066, "\u2581names": 6067, "\u0642\u0627\u0644": 6068, "\u2581\u064a\u0648\u063a\u0648\u0633\u0644\u0627\u0641\u064a\u0627": 6069, "\u2581socio": 6070, "\u062d\u0642": 6071, "\u2581\u0627\u0644\u0643\u0627": 6072, "\u0633\u0648\u0641": 6073, "\u2581\u0627\u0644\u062d\u0641\u0627\u0638": 6074, "\u2581obtain": 6075, "34": 6076, "\u2581\u062a\u0634": 6077, "\u2581\u0642\u0627\u0639\u0629": 6078, "\u2581Georgia": 6079, "\u2581\u0648\u0627\u0644\u062e\u0645\u0633\u0648\u0646": 6080, "\u2581\u0627\u0644\u0644\u064a\u0644": 6081, "\u2581(4)": 6082, "\u2581\u0623\u0639\u0637": 6083, "\u2581\u0639\u0627\u0644\u0645\u064a": 6084, "\u2581\u062f\u062e\u0644": 6085, "\u2581\u0648\u0645\u0646\u0639": 6086, "\u2581\u0623\u062f\u0627\u0629": 6087, "\u063a\u0646\u064a": 6088, "\u2581\u0627\u0644\u0627\u0633\u062a\u0626\u0645\u0627\u0646\u064a": 6089, "06": 6090, "\u2581\u0648\u062c": 6091, "\u2581\u0627\u0644\u0633\u062c\u0648\u0646": 6092, "\u2581\u0646\u0641\u0642\u0627\u062a": 6093, "\u2581\u0635\u063a\u064a\u0631": 6094, "\u2581\u0627\u0644\u0645\u0644\u0627\u0626\u0645\u0629": 6095, "\u2581\u0627\u0644\u0642\u0633\u0631\u064a": 6096, "\u0627\u0644\u0629": 6097, "\u2581Session": 6098, "\u2581\u062c\u0648\u0646": 6099, "&": 6100, "\u2581Resolution": 6101, "\u2581gun": 6102, "\u2581fuel": 6103, "\u2581\u0648\u0627\u0644\u062f\u0639\u0645": 6104, "\u2581\u0645\u0639\u0647\u062f": 6105, "\u2581\u0625\u062a\u0627\u062d\u0629": 6106, "\u2581\u062a\u062d\u062b": 6107, "\u2581\u0627\u0644\u062a\u0623\u0645\u064a\u0646": 6108, "\u2581\u0627\u0644\u0641\u0636\u0627\u0626\u064a\u0629": 6109, "\u2581\u0627\u0644\u062c\u0645\u0647\u0648\u0631": 6110, "\u2581Bar": 6111, "\u2581\u0627\u0644\u0645\u0639\u0648\u0646\u0629": 6112, "\u2581\u0627\u0644\u064a": 6113, "\u2581\u0639\u0638\u064a\u0645": 6114, "\u2581COP": 6115, "\u2581\u0642\u0628\u0648\u0644": 6116, "\u2581\u0627\u0644\u0645\u0633\u062a\u062e\u062f\u0645\u0629": 6117, "\u2581Red": 6118, "\u2581assessed": 6119, "bo": 6120, "\u2581\u0627\u0644\u0645\u0630\u0643\u0648\u0631": 6121, "\u0627\u0629": 6122, "ven": 6123, "28": 6124, "\u2581courses": 6125, "\u2581\u0633\u0644\u0627\u0645": 6126, "\u2581sustained": 6127, "\u25812008-2009": 6128, "ka": 6129, "\u2581\u0627\u0644\u0625\u062d\u0635\u0627\u0626\u064a\u0629": 6130, "ung": 6131, "\u2581reproductive": 6132, "\u0633\u0628": 6133, "\u2581gets": 6134, "\u2581\u062c\u0646": 6135, "58": 6136, "\u2581Azerbaijan": 6137, "ba": 6138, "\u2581\u0627\u0644\u062a\u0639\u0628\u064a\u0631": 6139, "\u2581\u0639\u0642\u0648\u0628\u0629": 6140, "\u2581electoral": 6141, "\u2581couple": 6142, "\u258185": 6143, "\u064a\u0645\u0643\u0646": 6144, "\u2581comp": 6145, "\u2581\u0627\u0644\u0627\u0646\u062a\u062e\u0627\u0628\u064a\u0629": 6146, "\u2581\u0627\u0644\u0634\u0641\u0627\u0641\u064a\u0629": 6147, "\u0645\u0647": 6148, "\u2581waiting": 6149, "\u2581satisfaction": 6150, "\u2581\u0644\u0623\u0646\u0647\u0627": 6151, "\u2581began": 6152, "\u2581\u064a\u062a\u064a\u062d": 6153, "\u2581\u0642\u0631\u064a\u0628\u0627": 6154, "\u2581\u0648\u0627\u0633\u062a\u062e\u062f\u0627\u0645": 6155, "\u2581\u0627\u0644\u0623\u062c\u0647\u0632\u0629": 6156, "\u2581significantly": 6157, "\u2581\u0644\u0644\u0641\u0631\u064a\u0642": 6158, "85": 6159, "\u0645\u0627\u0631": 6160, "23": 6161, "\u2581\u0648\u0643\u0627\u0644\u0629": 6162, "\u2581\u0634\u0623\u0646\u0647\u0627": 6163, "ag": 6164, "\u2581\u0648\u062a\u0646\u0638\u064a\u0645": 6165, "RE": 6166, "\u2581Subcommittee": 6167, "INF": 6168, "\u2581\u0648\u0645\u0646\u0638\u0645\u0627\u062a": 6169, "\u2581encouraging": 6170, "\u2581\u064a\u0648\u062f": 6171, "\u2581\u0625\u062d\u0631\u0627\u0632": 6172, "\u0632\u0627": 6173, "\u2581Only": 6174, "\u2581opening": 6175, "\u062c\u0645\u0647\u0648\u0631\u064a\u0629": 6176, "\u0630\u0644": 6177, "\u2581acting": 6178, "\u2581\u0623\u0637\u0631\u0627\u0641": 6179, "\u2581determination": 6180, "\u0645\u0646\u0638\u0648\u0645\u0629": 6181, "\u2581\u0642\u0644": 6182, "\u0631\u062c\u0644": 6183, "\u2581\u062d\u0627\u0646": 6184, "spoke": 6185, "\u2581Hoc": 6186, "79": 6187, "\u2581Chapter": 6188, "77": 6189, "\u2581arrested": 6190, "\u0633\u0627": 6191, "\u2581Jack": 6192, "\u2581penalty": 6193, "\u2581\u0627\u0644\u0623\u062d\u0648\u0627\u0644": 6194, "\u2581century": 6195, "\u2581\u0648\u0627\u0641\u0642\u062a": 6196, "\u2581\u0627\u0644\u0633\u0627\u0628\u0639": 6197, "\u2581sit": 6198, "\u2581\u0645\u0645\u0627\u062b\u0644\u0629": 6199, "\u2581\u0627\u0644\u0642\u064a\u0627\u062f\u0629": 6200, "\u2581\u0627\u0644\u0627\u0642\u062a\u0631\u0627\u062d": 6201, "\u2581gas": 6202, "56": 6203, "\u2581Guatemala": 6204, "\u2581\u0627\u0644\u0641\u0639\u0627\u0644\u0629": 6205, "\u2581\u064a\u062d\u062a\u0627\u062c": 6206, "\u0647\u0631\u0628": 6207, "\u2581\u064a\u0642\u0631\u0631": 6208, "\u2581registered": 6209, "\u2581bringing": 6210, "\u2581\u0627\u0644\u0628\u0627\u0644\u063a\u0629": 6211, "\u2581\u0627\u0644\u0645\u0648\u062a": 6212, "\u2581ten": 6213, "\u2581\u0628\u0643\u062b\u064a\u0631": 6214, "everal": 6215, "\u2581\u062a\u0639\u0642\u062f": 6216, "\u0633\u0648": 6217, "\u2581\u0648\u062a\u0637\u0644\u0628": 6218, "\u2581\u0627\u0644\u0623\u0648\u0644\u064a": 6219, "\u2581Austria": 6220, "\u2581Li": 6221, "\u2581conformity": 6222, "\u2581walk": 6223, "\u2581\u0642\u062f\u0631\u0647\u0627": 6224, "\u2581Myanmar": 6225, "free": 6226, "\u0627\u0644\u064a": 6227, "\u2581birth": 6228, "\u2581containing": 6229, "\u2581Initiative": 6230, "\u064a\u062f\u064a": 6231, "\u2581kept": 6232, "\u2581\u064a\u0631\u062c\u0649": 6233, "\u2581grave": 6234, "\u2581\u0627\u0644\u0645\u0634\u0631\u062f\u064a\u0646": 6235, "\u2581\u0627\u0644\u0641\u0639\u0644\u064a\u0629": 6236, "\u2581expenses": 6237, "\u2581amounts": 6238, "\u0628\u0639\u062f": 6239, "\u062a\u0648\u0642\u064a\u0639": 6240, "\u2581intention": 6241, "\u2581\u0627\u0644\u0645\u0636\u0627\u062f\u0629": 6242, "\u2581\u0648\u0643\u064a\u0644": 6243, "\u2581\u0627\u0644\u0628\u0634\u0631\u064a": 6244, "83": 6245, "\u2581oversight": 6246, "\u2581\u0630\u0647\u0628": 6247, "\u2581limit": 6248, "\u2581budgetary": 6249, "\u2581Jordan": 6250, "\u0630\u0643": 6251, "\u2581\u0627\u0644\u0645\u0627\u0621": 6252, "tra": 6253, "\u062c\u0627": 6254, "\u2581Promotion": 6255, "\u2581\u0642\u0637": 6256, "\u2581\u0627\u0644\u062a\u0639\u0644\u064a\u0645\u064a\u0629": 6257, "46": 6258, "74": 6259, "\u2581enterprises": 6260, "\u2581fear": 6261, "\u2581targeted": 6262, "\u2581\u0627\u062e\u0628\u0631": 6263, "\u2581Ha": 6264,
[...]
